@@UNKNOWN@@
<unk>
.
,
t
h
e
"
o
a
n
d
i
f
w
s
y
u
r
'
?
m
b
-
v
p
c
l
k
j
!
g
*
;
:
x
q
z
)
(
1
/
_
2
3
4
~
5
#
0
6
7
$
>
9
8
[
]
<
&
%
¨
`
é
»
«
=
•
@
+
©
¡
{
}
ª
ñ
ï
‖
ç
í
^
£
§
♥
−
à
|
°
¦
ł
ĩ
ü
®
ù
á
â
ó
è
∞
ë
ä
♪
ò
ω
▪
½
ǒ
‡
ê
◊
►
۞
ú
€
æ
î
↕
ô
ē
ǐ
♫
�

™
ř
ā
·
¿
\
─


∙
ॐ
ö
ø


●
­
■

†
å
ō
ã
¤
⠔

н

⚔
ă
û
º
♦
ĝ
¹
═

¾
ì
☼
ș
¼
☺
đ
ą
ǽ
╦

¬
ī
​
œ
¢
ǎ
š
ʻ
ν
α

я
б
й
τ
ο
ε
ί
ι
δ


‐
с

þ
κ
‑
‒
к

σ
č

υ
ό


ß
е
т
μ
π
ρ
έ
в
ş
о
ð
а
ς
р
м
у
ή
ά
и
д


λ
л
γ
¯





.</w>
,</w>
t</w>
h</w>
e</w>
"</w>
o</w>
a</w>
n</w>
d</w>
i</w>
f</w>
w</w>
s</w>
y</w>
u</w>
r</w>
'</w>
?</w>
m</w>
b</w>
-</w>
v</w>
p</w>
c</w>
l</w>
k</w>
j</w>
!</w>
g</w>
*</w>
;</w>
:</w>
x</w>
q</w>
z</w>
)</w>
(</w>
1</w>
/</w>
_</w>
2</w>
3</w>
4</w>
~</w>
5</w>
#</w>
0</w>
6</w>
7</w>
$</w>
></w>
9</w>
8</w>
[</w>
]</w>
<</w>
&</w>
%</w>
¨</w>
`</w>
é</w>
»</w>
«</w>
=</w>
•</w>
@</w>
+</w>
©</w>
¡</w>
{</w>
}</w>
ª</w>
ñ</w>
ï</w>
‖</w>
ç</w>
í</w>
^</w>
£</w>
§</w>
♥</w>
−</w>
à</w>
|</w>
°</w>
¦</w>
ł</w>
ĩ</w>
ü</w>
®</w>
ù</w>
á</w>
â</w>
ó</w>
è</w>
∞</w>
ë</w>
ä</w>
♪</w>
ò</w>
ω</w>
▪</w>
½</w>
ǒ</w>
‡</w>
ê</w>
◊</w>
►</w>
۞</w>
ú</w>
€</w>
æ</w>
î</w>
↕</w>
ô</w>
ē</w>
ǐ</w>
♫</w>
�</w>
</w>
™</w>
ř</w>
ā</w>
·</w>
¿</w>
\</w>
─</w>
</w>
</w>
∙</w>
ॐ</w>
ö</w>
ø</w>
</w>
</w>
●</w>
­</w>
■</w>
</w>
†</w>
å</w>
ō</w>
ã</w>
¤</w>
⠔</w>
</w>
н</w>
</w>
⚔</w>
ă</w>
û</w>
º</w>
♦</w>
ĝ</w>
¹</w>
═</w>
</w>
¾</w>
ì</w>
☼</w>
ș</w>
¼</w>
☺</w>
đ</w>
ą</w>
ǽ</w>
╦</w>
</w>
¬</w>
ī</w>
​</w>
œ</w>
¢</w>
ǎ</w>
š</w>
ʻ</w>
ν</w>
α</w>
</w>
я</w>
б</w>
й</w>
τ</w>
ο</w>
ε</w>
ί</w>
ι</w>
δ</w>
</w>
</w>
‐</w>
с</w>
</w>
þ</w>
κ</w>
‑</w>
‒</w>
к</w>
</w>
σ</w>
č</w>
</w>
υ</w>
ό</w>
</w>
</w>
ß</w>
е</w>
т</w>
μ</w>
π</w>
ρ</w>
έ</w>
в</w>
ş</w>
о</w>
ð</w>
а</w>
ς</w>
р</w>
м</w>
у</w>
ή</w>
ά</w>
и</w>
д</w>
</w>
</w>
λ</w>
л</w>
γ</w>
¯</w>
</w>
</w>
</w>
</w>
</w>
th
in
ed</w>
an
the</w>
ou
er</w>
ing</w>
to</w>
er
he</w>
and</w>
ar
hi
at</w>
re
wa
on
st
en
ha
of</w>
or
in</w>
al
it
en</w>
on</w>
el
ro
it</w>
ac
was</w>
me</w>
yo
you</w>
her</w>
es</w>
ly</w>
no
at
lo
li
she</w>
wh
or</w>
st</w>
his</w>
that</w>
ea
ve</w>
be
ri
ld</w>
an</w>
gh
ere</w>
the
's</w>
ti
't</w>
n't</w>
id</w>
sa
le</w>
si
ur
is</w>
bu
se</w>
my</w>
ho
ould</w>
ne
out</w>
le
wit
om
il
with</w>
as</w>
had</w>
se
ght</w>
ke</w>
for</w>
un
la
ra
one</w>
ma
but</w>
do
ab
to
ic
ch
ev
him</w>
sh
ked</w>
ca
pp
be</w>
go
sp
oun
ir
de
ther</w>
do</w>
co
all</w>
et</w>
ss</w>
di
mo
ent</w>
not</w>
de</w>
now</w>
ted</w>
what</w>
they</w>
ag
ack</w>
said</w>
have</w>
fro
we</w>
ch</w>
ce</w>
up</w>
ore</w>
bo
ver</w>
ter</w>
loo
thing</w>
this</w>
from</w>
king</w>
ds</w>
so</w>
as
our</w>
su
wn</w>
con
did</w>
mi
ru
fe
sed</w>
gh</w>
ta
ju
led</w>
could</w>
would</w>
so
way</w>
ts</w>
are</w>
were</w>
ir</w>
da
po
if</w>
em
ill</w>
rea
like</w>
ers</w>
back</w>
wor
ear
ound</w>
there</w>
'd</w>
ded</w>
ell</w>
ex
qu
ough</w>
hea
th</w>
no</w>
ll</w>
into</w>
ing
just</w>
when</w>
about</w>
ati
fa
pu
then</w>
ally</w>
sc
lea
ver
al</w>
mu
ant</w>
ace</w>
fu
whi
yes</w>
ind</w>
ting</w>
them</w>
dy</w>
com
ding</w>
gu
tur
been</w>
ee
for
som
ard</w>
know</w>
some
op
by</w>
tw
your</w>
ter
pro
sel
of
ge</w>
fi
od</w>
pa
ec
down</w>
over</w>
re</w>
lu
how</w>
'm</w>
time</w>
aga
wi
tr
sur
more</w>
..
get</w>
other</w>
pre
ned</w>
ong</w>
der</w>
vi
par
ys</w>
pl
side</w>
fo
tly</w>
ck</w>
eyes</w>
ks</w>
gi
me
ine</w>
ate</w>
ni
self</w>
...</w>
per
ty</w>
af
el</w>
their</w>
ice</w>
head</w>
thin
pped</w>
can</w>
gr
're</w>
man</w>
who</w>
ying</w>
ling</w>
ation</w>
sto
us</w>
sm
right</w>
der
sho
ok</w>
ge
any</w>
ga
fore</w>
pe
ever
ought</w>
before</w>
han
new</w>
even</w>
around</w>
ely</w>
mp
see</w>
star
cau
any
ved</w>
here</w>
ss
sh</w>
clo
going</w>
fir
go</w>
our
thr
ps</w>
some</w>
'll</w>
low
where</w>
ving</w>
only</w>
tion</w>
hel
off</w>
will</w>
na
ci
than</w>
looked</w>
able</w>
tle</w>
roo
ons</w>
ten
through</w>
want</w>
ous</w>
think</w>
ning</w>
cu
hand</w>
ba
vo
mar
jo
again</w>
too</w>
face</w>
te</w>
wal
shi
sw
lit
away</w>
ft</w>
still</w>
room</w>
ity</w>
something</w>
fe</w>
come</w>
ssi
day</w>
let</w>
ry</w>
ear</w>
ep
ings</w>
gre
car
ered</w>
est
wan
after</w>
well</w>
hear
asked</w>
bl
thought</w>
two</w>
never</w>
ang
good</w>
ever</w>
end</w>
sta
ad
ated</w>
br
ance</w>
min
cha
've</w>
sure</w>
ck
cause</w>
hu
made</w>
got</w>
tri
ssed</w>
much</w>
look</w>
ched</w>
mb
shed</w>
fin
why</w>
du
ward</w>
bel
turned</w>
sha
gg
ach</w>
bro
gra
most</w>
knew</w>
ath</w>
door</w>
little</w>
tal
ls</w>
because</w>
fel
ened</w>
tu
war
te
sk
ff
sit
take</w>
happ
man
ms</w>
make</w>
cal
every
long</w>
first</w>
tra
ach
ste
ful</w>
ble</w>
ess</w>
im
say</w>
ence</w>
came</w>
ced</w>
pri
felt</w>
bed</w>
ree</w>
son</w>
mon
dar
took</w>
ser
app
ki
tru
fri
low</w>
chi
body</w>
fr
pla
sin
ali
wanted</w>
ose</w>
very</w>
ves</w>
est</w>
need</w>
pul
kno
ears</w>
dd
stu
tell</w>
pi
str
dre
really</w>
cre
red</w>
bi
has</w>
cont
he
hands</w>
which</w>
sen
peop
its</w>
sing</w>
people</w>
rec
wat
sli
ca</w>
should</w>
night</w>
ws</w>
with
though</w>
left</w>
while</w>
tting</w>
voice</w>
med</w>
again
ze</w>
against</w>
another</w>
wom
last</w>
lan
ready</w>
ment</w>
life</w>
told</w>
mem
mes</w>
mom
ja
mat
ous
pe</w>
ei
lar
les</w>
lau
few</w>
brea
age</w>
ion</w>
ways</w>
ph
kee
anything</w>
ined</w>
tt
being</w>
ents</w>
nothing</w>
cur
went</w>
ep</w>
hind</w>
behind</w>
ick</w>
ite</w>
enough</w>
comp
am</w>
ed
sor
tter</w>
seem
bar
mor
cor
does</w>
saw</w>
ouse</w>
shou
dea
may
unti
might</w>
feel</w>
zed</w>
tre
off
things</w>
col
dra
gir
put</w>
until</w>
own</w>
ka
those</w>
nex
bab
under
wo
looking</w>
place</w>
mind</w>
fac
find</w>
and
cla
win
ster</w>
fol
sil
light</w>
spec
beg
ie
maybe</w>
een</w>
once</w>
every</w>
iled</w>
less</w>
fron
ger</w>
cked</w>
gen
outh</w>
il</w>
hun
both</w>
hal
har
her
moment</w>
house</w>
next</w>
ching</w>
fing
lat
love</w>
always</w>
dri
old</w>
ept</w>
sted</w>
ness</w>
stre
ner</w>
my
work</w>
front</w>
ross</w>
found</w>
hair</w>
cer
stan
inter
stood</w>
plea
ean</w>
him
oh</w>
bre
rai
ken</w>
row
himself</w>
without</w>
ure</w>
dr
help</w>
inside</w>
poin
memb
wr
table</w>
ol</w>
woman</w>
father</w>
ey</w>
ating</w>
bri
hard</w>
home</w>
same</w>
ory</w>
sion</w>
lly</w>
give</w>
emp
ack
dly</w>
heard</w>
mother</w>
flo
men</w>
smi
cour
keep</w>
ans</w>
everything</w>
ul
ies</w>
each</w>
someone</w>
ey
ried</w>
mouth</w>
arm</w>
open</w>
arms</w>
dro
ank</w>
seemed</w>
nee
shoul
coun
gs</w>
better</w>
fre
ick
spo
bloo
three</w>
trying</w>
pulled</w>
ped</w>
betw
toward</w>
mer
between</w>
sle
answ
lowed</w>
nor
bur
exp
secon
years</w>
inst
small</w>
ached</w>
cra
across</w>
out
wait
feel
ses</w>
dded</w>
stand</w>
tered</w>
ven</w>
fami
set</w>
since</w>
started</w>
under</w>
ton
pping</w>
ening</w>
kes</w>
almost</w>
smile</w>
ors</w>
ani
already</w>
gave</w>
laugh
cr
ob
part</w>
pic
used</w>
rememb
words</w>
hur
done</w>
up
res</w>
must</w>
walked</w>
enti
minu
tou
pr
nu
gla
car</w>
att
ange</w>
won
ary</w>
many</w>
doing</w>
coming</w>
tried</w>
world</w>
cho
toge
heart</w>
ously</w>
together</w>
bea
kay</w>
else</w>
rep
ten</w>
je
these</w>
cou
lear
myself</w>
quest
dered</w>
dark</w>
seen</w>
stop</w>
row</w>
diff
eli
turn</w>
black</w>
try</w>
feet</w>
okay</w>
sat</w>
mag
sti
fec
nodded</w>
supp
far</w>
ort</w>
held</w>
ins</w>
mean</w>
ming</w>
va
yed</w>
ping</w>
girl</w>
lips</w>
lot</w>
times</w>
ghts</w>
gar
illed</w>
cl
see
hol
pas
reali
ann
herself</w>
sig
moved</w>
char
mil
hor
ious</w>
yet</w>
gged</w>
fully</w>
close</w>
hear</w>
ce
rest</w>
called</w>
smiled</w>
ged</w>
squ
began</w>
air</w>
water</w>
ssion</w>
tain</w>
who
leave</w>
ig
also</w>
belie
pow
name</w>
sy</w>
ders</w>
deci
fla
ering</w>
ssing</w>
mr
call</w>
clu
ol
wee
gone</w>
talk</w>
kind</w>
blood</w>
bit</w>
breath</w>
oth
getting</w>
floor</w>
tes</w>
tel
course</w>
wing</w>
says</w>
needed</w>
such</w>
ture</w>
shing</w>
word</w>
big</w>
friend</w>
des</w>
tually</w>
ble
sudd
contin
lean
dis
ask</w>
cen
finally</w>
rol
possi
shook</w>
reas
probab
ff</w>
ven
along</w>
fingers</w>
lon
gri
whisp
phone</w>
blu
probably</w>
second</w>
dam
ane</w>
least</w>
great</w>
continu
ve
sts</w>
later</w>
exc
ground</w>
yea
best</w>
shu
happened</w>
deep</w>
god</w>
ours</w>
mur
yeah</w>
past</w>
believe</w>
den</w>
soon</w>
half</w>
cli
lin
thro
men
stopped</w>
quick
sy
fle
chest</w>
white</w>
reached</w>
read</w>
making</w>
sorry</w>
ire</w>
days</w>
opened</w>
move</w>
family</w>
surpri
sound</w>
dow</w>
ement</w>
feeling</w>
dead</w>
direc
ect</w>
differ
everyone</w>
ide
morning</w>
ben
ately</w>
frien
ot</w>
ently</w>
youn
bbed</w>
wea
bra
lie</w>
act</w>
slow
ad</w>
anyone</w>
per</w>
hell</w>
vered</w>
taking</w>
bb
top</w>
over
wo</w>
bad</w>
idea</w>
imp
tal</w>
noti
quickly</w>
ah</w>
standing</w>
run
dge</w>
ining</w>
soun
comple
ren
au
wil
fted</w>
ale</w>
dic
irs</w>
aced</w>
mine</w>
qui
kept</w>
forward</w>
enly</w>
clea
tor
tions</w>
ber
ef
use</w>
lied</w>
la</w>
is
care</w>
mp</w>
shoulder</w>
ared</w>
tor</w>
anc
dou
spea
boy</w>
ran</w>
sk</w>
stri
eng
ship</w>
slowly</w>
glan
wall</w>
having</w>
bla
alone</w>
list
ond</w>
ar</w>
buil
onto</w>
stay</w>
remember</w>
tty</w>
ns</w>
closed</w>
skin</w>
cap
thinking</w>
stru
guy</w>
fore
iling</w>
ny</w>
minutes</w>
please</w>
sla
am
plan
wed</w>
watched</w>
hold</w>
point</w>
ler</w>
fire</w>
real</w>
high</w>
line</w>
full</w>
onal</w>
beau
ink</w>
outside</w>
atten
bor
talking</w>
wrong</w>
land</w>
either</w>
suddenly</w>
scho
may</w>
na</w>
ations</w>
ches</w>
oned</w>
stared</w>
pur
eri
resp
ghtly</w>
ones</w>
disa
chap
lor
run</w>
tun
fine</w>
vel
ley</w>
ser</w>
fact</w>
speci
fli
matter</w>
ths</w>
understand</w>
hat
near
chee
fal
ple</w>
actually</w>
thre
mom</w>
lost</w>
sses</w>
ead</w>
lar</w>
neck</w>
wait</w>
drea
ke
comm
pan
hon
five</w>
waiting</w>
ton</w>
cro
hand
zz
dist
dad</w>
cking</w>
pain</w>
swe
lou
sent</w>
aw
whole</w>
ma</w>
wards</w>
cat
ging</w>
friends</w>
ago</w>
chapter</w>
met</w>
den
four</w>
oc
young</w>
hurt</w>
walk</w>
bru
chec
blue</w>
ia</w>
tely</w>
eared</w>
sting</w>
boo
shir
taken</w>
mr.</w>
sit</w>
caught</w>
different</w>
pretty</w>
fig
simp
care
gue</w>
nat
lun
din
ters</w>
als</w>
die</w>
gro
instead</w>
laughed</w>
answer</w>
chang
stro
case</w>
imag
cold</w>
smo
tom
fast</w>
others</w>
desp
cks</w>
brother</w>
ef</w>
mm
kill</w>
ction</w>
prot
stom
large</w>
mber</w>
anger</w>
what
tin
gaze</w>
vy</w>
zing</w>
acti
fur
thir
leaned</w>
perfec
sever
fini
story</w>
window</w>
school</w>
screa
pat
brought</w>
dev
quite</w>
bal
possible</w>
fell</w>
looks</w>
strai
enty</w>
legs</w>
chil
ected</w>
hit</w>
chair</w>
consi
lowing</w>
che
question</w>
happy</w>
cle</w>
start</w>
sense</w>
del
da</w>
ner
chri
acc
inten
death</w>
whispered</w>
kit
glanced</w>
ight</w>
shar
stepped</w>
reason</w>
clear
mped</w>
hope</w>
ces</w>
sitting</w>
cal</w>
ker</w>
whatever</w>
holding</w>
thank</w>
shot</w>
int</w>
continued</w>
show</w>
town</w>
disapp
appro
acked</w>
several</w>
than
sol
change</w>
stor
sof
replied</w>
person</w>
es
died</w>
year</w>
expla
ty
abo
city</w>
hours</w>
covered</w>
exac
watching</w>
meant</w>
ring</w>
followed</w>
respon
known</w>
sna
peri
dent</w>
power</w>
medi
uni
exactly</w>
beauti
part
moving</w>
throat</w>
rema
running</w>
realized</w>
money</w>
watch</w>
mal</w>
ens</w>
eye</w>
mbled</w>
fer
comfor
guess</w>
sub
sleep</w>
shirt</w>
sear
rol</w>
hot</w>
glass</w>
vic
por
true</w>
od
haps</w>
cir
usu
ghter</w>
perhaps</w>
we
sing
form
kne
bil
book</w>
promi
attention</w>
yel
ther
kiss</w>
ited</w>
damn</w>
closer</w>
chen</w>
beautiful</w>
longer</w>
today</w>
fl
nice</w>
office</w>
shit</w>
iti
human</w>
stairs</w>
proble
touch</w>
sco
vamp
living</w>
given</w>
saying</w>
grabbed</w>
chance</w>
job</w>
late</w>
cut</w>
cing</w>
live</w>
ght
seat</w>
vers
pushed</w>
bot
shru
tea
vie
expre
cru
gun</w>
scre
beside</w>
mir
women</w>
ran
stra
nar
step</w>
jack</w>
wra
tic</w>
ates</w>
ist</w>
couple</w>
dering</w>
busin
pen
back
baby</w>
decided</w>
pal
turning</w>
sigh
teen</w>
wel
cy</w>
reli
thou
shoulders</w>
earing</w>
ddle</w>
tonight</w>
short</w>
vely</w>
jer
blo
rolled</w>
arri
tive</w>
doub
sar
ghten
mic
clear</w>
fear</w>
vin
above</w>
pressed</w>
loved</w>
lay</w>
kitchen</w>
near</w>
filled</w>
control</w>
vel</w>
ale
rel
sun
free</w>
thu
tom</w>
tt</w>
grow
tears</w>
leaving</w>
sister</w>
ult</w>
meet</w>
uring</w>
posit
tten</w>
bit
rose</w>
eight</w>
phi
passed</w>
dropped</w>
form</w>
street</w>
road</w>
spoke</w>
scu
sky</w>
len</w>
towards</w>
how
pt</w>
poli
sou
gy</w>
working</w>
band</w>
shut</w>
parents</w>
sides</w>
zy</w>
obvi
ort
secre
fight</w>
business</w>
val
tar
raised</w>
fied</w>
ie</w>
bul
um</w>
ffe
anyway</w>
int
ured</w>
silence</w>
twenty</w>
aged</w>
child</w>
soft</w>
ily</w>
tran
ttered</w>
drew</w>
gotten</w>
seeing</w>
within</w>
bring</w>
joh
easy</w>
rather</w>
upon</w>
mon</w>
tain
questi
inv
mel
building</w>
gl
sort</w>
ingly</w>
food</w>
s.</w>
dark
gry</w>
your
fun
immedi
cri
dress</w>
id
bir
completely</w>
green</w>
flu
ina</w>
ici
walking</w>
corner</w>
ils</w>
picked</w>
reco
noticed</w>
ne</w>
safe</w>
truth</w>
ster
dren</w>
speak</w>
stea
ror</w>
strong</w>
edge</w>
straight</w>
bs</w>
steps</w>
tee
children</w>
giving</w>
fall</w>
raid</w>
waited</w>
bly</w>
wer</w>
ic</w>
hour</w>
lifted</w>
stone</w>
crow
inning</w>
wife</w>
suppo
easi
gan</w>
changed</w>
thes</w>
grou
staring</w>
deal</w>
shes</w>
enjo
sun</w>
action</w>
week</w>
warm</w>
stomach</w>
ical</w>
miss</w>
six</w>
killed</w>
gon</w>
cket</w>
opp
happen</w>
yourself</w>
returned</w>
nearly</w>
concer
agre
ye</w>
deli
nei
whe
guys</w>
dies</w>
thoughts</w>
trou
prin
coffe
afraid</w>
guar
sighed</w>
import
eld</w>
knowing</w>
len
worked</w>
pull</w>
ise</w>
ct</w>
wol
wide</w>
van
quiet</w>
finger</w>
convers
clothes</w>
become</w>
et
fra
seem</w>
grand
eath</w>
yer</w>
teeth</w>
break</w>
sal
placed</w>
son
dows</w>
answered</w>
expression</w>
bag</w>
bat
during</w>
supposed</w>
coffee</w>
foot</w>
ly
xed</w>
bed
ank
ator</w>
minute</w>
worry</w>
gge
entire</w>
mit
desk</w>
girls</w>
are
sight</w>
lord</w>
ian</w>
rely</w>
wondered</w>
sir</w>
thanks</w>
makes</w>
gener
ounded</w>
perfect</w>
foo
selves</w>
gging</w>
immediately</w>
ets</w>
play</w>
thy</w>
telling</w>
empty</w>
problem</w>
mee
mb</w>
sometimes</w>
after
parti
surprised</w>
ities</w>
art</w>
dred</w>
scen
ball</w>
figure</w>
however</w>
ece</w>
beneath</w>
cky</w>
dau
trust</w>
although</w>
ith</w>
barely</w>
fil
certain</w>
lady</w>
hey</w>
pointed</w>
colle
finished</w>
middle</w>
shrugged</w>
order</w>
plan</w>
els</w>
appeared</w>
ats</w>
tight</w>
emo
knows</w>
eved</w>
ass</w>
quie
partment</w>
kissed</w>
blin
ja</w>
chu
dow
spir
number</w>
sam</w>
view</w>
inging</w>
interest
terri
became</w>
ition</w>
aching</w>
heavy</w>
simply</w>
hall</w>
moun
laugh</w>
cted</w>
months</w>
san
tan
slid</w>
wind</w>
ger
can
wish</w>
pid</w>
sul
hundred</w>
quick</w>
ghtened</w>
tongue</w>
fif
important</w>
cally</w>
formation</w>
headed</w>
drink</w>
space</w>
kil
eal</w>
woo
pain
conversation</w>
return</w>
cel
vol
fused</w>
hen
esca
lor</w>
group</w>
plac
except</w>
famili
pho
earth</w>
ste</w>
swi
trac
don</w>
wearing</w>
liked</w>
nose</w>
slightly</w>
ges</w>
ney</w>
spent</w>
added</w>
sign</w>
bar</w>
lit</w>
secur
comes</w>
wned</w>
sett
temp
gently</w>
gic</w>
hers</w>
writ
strange</w>
daughter</w>
ject</w>
tiny</w>
nor</w>
certain
sounded</w>
ta</w>
ahead</w>
dinner</w>
eel</w>
mmed</w>
tomor
cess
test</w>
tomorrow</w>
none</w>
pulling</w>
ssa
direction</w>
mmer</w>
pres
ry
tering</w>
doc
alive</w>
anymore</w>
sounds</w>
hy
lights</w>
recog
ddy</w>
area</w>
eye
doors</w>
stret
inned</w>
ically</w>
wake</w>
less
sci
weeks</w>
ky</w>
deep
touched</w>
beli
thick</w>
surprise</w>
tone</w>
ana</w>
ow</w>
lip</w>
--</w>
dir
rup
softly</w>
kids</w>
experi
trouble</w>
stic</w>
specially</w>
sped</w>
somewhere</w>
box</w>
atu
twi
frey
knees</w>
piece</w>
broken</w>
im</w>
somehow</w>
lying</w>
stuff</w>
paper</w>
guard</w>
jack
quietly</w>
force</w>
lo</w>
ality</w>
sive</w>
drive</w>
bey
cent</w>
freyja</w>
sweet</w>
early</w>
kni
mage</w>
cus</w>
ative</w>
ssa</w>
deser
eat</w>
bbing</w>
aling</w>
dang
beyond</w>
remembered</w>
especially</w>
situ
single</w>
slow</w>
sty</w>
questions</w>
spar
juli
worse</w>
bli
broke</w>
hesit
wants</w>
information</w>
defin
trees</w>
relea
police</w>
ital</w>
crazy</w>
cheek</w>
weap
ments</w>
cover</w>
tree</w>
reach</w>
check</w>
darkness</w>
conne
seconds</w>
tired</w>
locked</w>
paused</w>
board</w>
ra</w>
sugge
game</w>
itu
wrapped</w>
gray</w>
sex</w>
silent</w>
fav
hus
oud</w>
john</w>
scri
dom</w>
stupid</w>
thi
remin
dressed</w>
managed</w>
practi
male</w>
jen
aled</w>
mit</w>
distance</w>
ended</w>
seems</w>
alex</w>
walls</w>
follow</w>
threw</w>
wonder</w>
serv
huge</w>
bedroom</w>
meeting</w>
scar
vampire</w>
worried</w>
recogni
def
using</w>
brown</w>
expected</w>
dru
wood</w>
news</w>
bright</w>
means</w>
swal
beth</w>
mbling</w>
wri
doubt</w>
sic</w>
forced</w>
ery</w>
cess</w>
beat</w>
rela
heat</w>
ung</w>
unt</w>
often</w>
crowd</w>
unk</w>
mal
squee
vil
listen</w>
kin
thous
lier</w>
smiling</w>
ama
angry</w>
ghting</w>
thor
tted</w>
vid</w>
plu
mark</w>
anna</w>
cool</w>
eu
ignor
noon</w>
shaking</w>
yn</w>
evening</w>
party</w>
husband</w>
war</w>
sible</w>
thered</w>
catch</w>
tally</w>
position</w>
mrs.</w>
emer
promise</w>
bath
agreed</w>
tab
val</w>
surr
nic
pick</w>
arrived</w>
solu
loud</w>
site</w>
certainly</w>
further</w>
glad</w>
below</w>
nerv
ony</w>
lower</w>
relati
dog</w>
eve</w>
whether</w>
pocket</w>
comfortable</w>
boys</w>
nie</w>
serious</w>
key</w>
rock</w>
smell</w>
pay</w>
ng
appar
know
company</w>
pes</w>
tro
door
repe
field</w>
forget</w>
strugg
sword</w>
tall</w>
spect</w>
musc
fic
assu
playing</w>
desi
os</w>
attemp
survi
sist
thers</w>
keeping</w>
vering</w>
jas
lik
earlier</w>
mly</w>
ties</w>
dom
them
kid</w>
tel</w>
desper
situation</w>
hung</w>
hael</w>
captain</w>
clar
clearly</w>
down
dream</w>
incre
save</w>
luc
reading</w>
fru
themselves</w>
usual</w>
soldi
jake</w>
choice</w>
ysi
date</w>
pack</w>
swee
lived</w>
handed</w>
pper</w>
snapped</w>
grin</w>
streng
suc
acks</w>
zen</w>
fun</w>
fit</w>
doctor</w>
ssive</w>
hau
obviously</w>
inde
priv
soci
lish</w>
asking</w>
far
magic</w>
icked</w>
fortun
apartment</w>
wolf</w>
calm</w>
dden</w>
apo
sleep
carefully</w>
nick</w>
ren</w>
pair</w>
scra
pleasure</w>
scent</w>
slipped</w>
anti
gets</w>
bottom</w>
iously</w>
usually</w>
clean</w>
showed</w>
normal</w>
chin</w>
jumped</w>
james</w>
don
easily</w>
bun
entered</w>
natur
ature</w>
strea
crossed</w>
avo
rying</w>
sex
pil
mid
hoped</w>
mean
explain</w>
state</w>
sely</w>
takes</w>
shel
grew</w>
thed</w>
climb
familiar</w>
prepar
ired</w>
ility</w>
grinned</w>
center</w>
mista
hosp
ored</w>
gab
picture</w>
round</w>
messa
lan</w>
explo
lives</w>
deman
curi
ener
gun
ena</w>
eyebro
cab
spot</w>
despite</w>
secret</w>
hoping</w>
itself</w>
chuck
..</w>
path</w>
dan
offic
itely</w>
sea</w>
knowle
lies</w>
lose</w>
human
thirty</w>
talked</w>
formed</w>
disp
imagine</w>
pau
suit</w>
letting</w>
future</w>
ow
cell</w>
shouted</w>
butt
married</w>
even
laughing</w>
ben</w>
likely</w>
mate</w>
hate</w>
fair</w>
ries</w>
ya</w>
pass</w>
bathroom</w>
termin
leaning</w>
leg</w>
offered</w>
afternoon</w>
breathing</w>
pun
dying</w>
diffic
worth</w>
sharp</w>
strength</w>
rage</w>
van</w>
aware</w>
wet</w>
fer</w>
thin</w>
muttered</w>
soul</w>
dam</w>
remained</w>
dol
wore</w>
attack</w>
allowed</w>
metal</w>
emi
realize</w>
david</w>
shall</w>
grace</w>
gor
pra
lion</w>
frowned</w>
beginning</w>
sse
exa
hide</w>
protec
dry</w>
counter</w>
simple</w>
cheeks</w>
send</w>
mike</w>
besides</w>
coo
helped</w>
waist</w>
definitely</w>
search</w>
ounds</w>
physi
mary</w>
stly</w>
music</w>
pati
invol
effor
stayed</w>
ban
kar
team</w>
memory</w>
gal
liam</w>
publi
master</w>
handle</w>
sick</w>
dr.</w>
turns</w>
truck</w>
var
imed</w>
ages</w>
drop</w>
neither</w>
glance</w>
sn
weight</w>
scared</w>
vers</w>
fuck</w>
bow</w>
seven</w>
class</w>
yle</w>
convin
michael</w>
gold</w>
chur
rit
ffed</w>
brain</w>
asks</w>
spe
following</w>
fighting</w>
older</w>
high
needs</w>
dding</w>
cried</w>
danger
knife</w>
explained</w>
mission</w>
vir
new
wise</w>
murmur
notice</w>
deta
erful</w>
anci
cry</w>
hood</w>
bas
atures</w>
aside</w>
horse</w>
discu
she
confi
gn
mov
stantly</w>
main</w>
particu
settled</w>
resi
tex
missed</w>
guil
gui
dance</w>
forehead</w>
ek</w>
forever</w>
spread</w>
relation
silver</w>
destro
preten
ounding</w>
screen</w>
energy</w>
hospital</w>
max</w>
suff
drove</w>
fting</w>
oning</w>
dani
recei
aned</w>
falling</w>
apart</w>
za
learned</w>
calling</w>
foot
ate
amer
stare</w>
appre
wed
store</w>
sions</w>
oper
moments</w>
compu
head
cused</w>
drin
memor
hall
sigh</w>
dan</w>
trans
sati
leng
wl</w>
rain</w>
mble</w>
jaw</w>
cker</w>
third</w>
lin</w>
special</w>
loc
wear</w>
tures</w>
ken
apparently</w>
lock</w>
polit
jason</w>
flesh</w>
goes</w>
understood</w>
carried</w>
opening</w>
ride</w>
pale</w>
det
inclu
shock</w>
security</w>
putting</w>
busy</w>
ash</w>
river</w>
break
hole</w>
emy</w>
lead</w>
gest
ka</w>
protect</w>
tow
tation</w>
queen</w>
books</w>
pants</w>
camer
gger</w>
inted</w>
jac
elled</w>
lap
profe
cup</w>
indi
maj
stuck</w>
pers
hanging</w>
battle</w>
shake</w>
gol
ester
bottle</w>
sudden</w>
americ
wondering</w>
escape</w>
relief</w>
org
wanting</w>
quar
ices</w>
kel
necess
air
ough
miles</w>
disappeared</w>
oms</w>
listening</w>
pose</w>
christ
push</w>
dness</w>
night
starting</w>
vision</w>
spi
stian</w>
acy</w>
kin</w>
ber</w>
radi
bby</w>
effec
sign
excit
crea
dangerous</w>
jeans</w>
noise</w>
hated</w>
dear</w>
figured</w>
willing</w>
learn</w>
shop</w>
stle</w>
eventually</w>
expect</w>
jec
screamed</w>
couch</w>
contact</w>
bran
guards</w>
absolu
mie</w>
fic</w>
level</w>
ph</w>
speaking</w>
dings</w>
mini
nel</w>
thousand</w>
count</w>
....</w>
sa</w>
susp
ination</w>
born</w>
ines</w>
horri
peter</w>
satis
windows</w>
summer</w>
elec
cy
exi
sat
ine
mul
unless</w>
un</w>
amu
laid</w>
viol
mping</w>
dor
difficult</w>
bodies</w>
paul</w>
powerful</w>
oli
emma</w>
missing</w>
entr
rick</w>
poor</w>
coat</w>
considered</w>
fresh</w>
country</w>
oppo
careful</w>
gate</w>
places</w>
offer</w>
apolo
anic</w>
thom
free
yelled</w>
among</w>
dence</w>
shor
chan
mach
pers</w>
happening</w>
fan
hotel</w>
lic
burst</w>
uncle</w>
sleeping</w>
tie</w>
ford</w>
wled</w>
message</w>
lows</w>
gli
bent</w>
geor
growing</w>
smoke</w>
lucky</w>
station</w>
grip</w>
acking</w>
shower</w>
expec
ssy</w>
hallway</w>
embar
acted</w>
fas
desire</w>
color</w>
mirror</w>
produ
provi
relationship</w>
rowed</w>
chase</w>
personal</w>
ending</w>
clen
truly</w>
nah</w>
adam</w>
commun
rat
accep
response</w>
shifted</w>
requ
leg
wine</w>
complete</w>
asle
eyed</w>
asleep</w>
sarah</w>
suppose</w>
swa
ners</w>
chal
sen</w>
vin</w>
spend</w>
mad</w>
driver</w>
tte</w>
argu
achel</w>
stron
comman
finding</w>
arr
begin</w>
ater</w>
ston</w>
visit</w>
obvious</w>
travel
yours</w>
snow</w>
sea
refle
laughter</w>
movi
present</w>
admit</w>
eigh
murmured</w>
va</w>
directly</w>
feelings</w>
rachel</w>
visit
waved</w>
gie</w>
share</w>
trip</w>
tem
note</w>
witch</w>
served</w>
presence</w>
private</w>
dem
bility</w>
focus</w>
funny</w>
stick</w>
ssie</w>
instru
ethan</w>
shadow</w>
twisted</w>
stem</w>
throw</w>
faces</w>
acing</w>
fallen</w>
riage</w>
embarra
wave</w>
clock</w>
mming</w>
ards</w>
weir
stal
ires</w>
hoo
experience</w>
wild</w>
rubbed</w>
win</w>
played</w>
til
gru
assa
appreci
pushing</w>
glar
tured</w>
elle</w>
flat</w>
confused</w>
possibly</w>
harder</w>
lowered</w>
hunter</w>
taste</w>
recor
hips</w>
general</w>
speed</w>
que</w>
burning</w>
boat</w>
determin
lines</w>
lunch</w>
nervous</w>
stretched</w>
curren
kers</w>
fish</w>
atic</w>
invest
ko
ease</w>
law</w>
cul
anywhere</w>
ele
heads</w>
ak</w>
ounced</w>
claire</w>
forest</w>
swallowed</w>
via</w>
rolling</w>
bert</w>
surface</w>
excu
press</w>
computer</w>
size</w>
believed</w>
impossible</w>
tra</w>
natural</w>
burned</w>
hidden</w>
cip
ably</w>
alex
dy
leather</w>
approached</w>
join</w>
reminded</w>
shoes</w>
knowledge</w>
distr
insi
pour
grab</w>
correc
final</w>
moon</w>
nobody</w>
gover
ink
checked</w>
humans</w>
interest</w>
woke</w>
surely</w>
jon
ability</w>
sophi
frustr
thru
jacket</w>
occa
bare</w>
entrance</w>
iness</w>
posse
shadows</w>
club</w>
allow</w>
interrup
zi
nod</w>
cat</w>
tion
jour
pink</w>
nur
paid</w>
blinked</w>
seriously</w>
tains</w>
list</w>
rang</w>
anny</w>
decision</w>
hardly</w>
villa
evil</w>
lid</w>
wished</w>
claimed</w>
interested</w>
vampires</w>
oth</w>
army</w>
loy
side
medic
mess</w>
nt</w>
forth</w>
sand
loa
arti
ari
involved</w>
mas</w>
climbed</w>
continue</w>
system</w>
hearing</w>
driving</w>
finish</w>
wonder
end
church</w>
signed</w>
bon
ordered</w>
mous</w>
glasses</w>
thomas</w>
mor</w>
stage</w>
cin
doorway</w>
repor
beer</w>
brief
ests</w>
whisper</w>
dor</w>
sha</w>
scene</w>
concerned</w>
mer</w>
slu
lli
welcome</w>
good
tat
lap</w>
memories</w>
god
promised</w>
ign
history</w>
uh</w>
threat
gho
cross</w>
henry</w>
palm</w>
circle</w>
bol
aunt</w>
mps</w>
daniel</w>
bite</w>
odd</w>
focused</w>
west</w>
ling
perfectly</w>
nine</w>
crying</w>
north</w>
neigh
demon</w>
yellow</w>
listened</w>
joe</w>
buy</w>
demanded</w>
image</w>
park</w>
indeed</w>
unable</w>
bear</w>
struck</w>
isa
acci
ements</w>
inno
jud
fought</w>
frea
built</w>
law
lessly</w>
plate</w>
mostly</w>
cleared</w>
piec
descri
stat
breakfast</w>
sis</w>
sity</w>
ances</w>
effort</w>
reaching</w>
cast</w>
issu
twice</w>
oul
separ
delic
circ
sni
em</w>
feels</w>
rush</w>
forgotten</w>
photo
faster</w>
lets</w>
disappo
anne</w>
danger</w>
bet</w>
terrible</w>
iles</w>
heading</w>
joined</w>
ceiling</w>
gar</w>
slammed</w>
storm</w>
tossed</w>
enjoy</w>
flying</w>
scream</w>
totally</w>
bones</w>
ent
faced</w>
seth</w>
soldiers</w>
tch</w>
ai</w>
muscles</w>
gigg
weak</w>
presen
shoved</w>
ette</w>
regre
gasped</w>
rich
bag
hiding</w>
non
heal
hi</w>
hello</w>
glo
prepared</w>
island</w>
weird</w>
instantly</w>
warri
defen
wedding</w>
preci
flew</w>
fly</w>
lowers</w>
nature</w>
rested</w>
pieces</w>
sour
rowing</w>
sym
positi
oni
swung</w>
month</w>
ops</w>
type</w>
circu
anno
00</w>
south</w>
super
opposite</w>
breathe</w>
wooden</w>
rif
elev
pit
kicked</w>
wound</w>
lars</w>
favor
risk</w>
woods</w>
roll</w>
ache</w>
grass</w>
six
affec
just
weapon</w>
luci
beach</w>
ignored</w>
evid
blade</w>
gabri
killing</w>
dreams</w>
panic</w>
centr
skir
parking</w>
boots</w>
admit
brothers</w>
ray</w>
tea</w>
dition</w>
grown</w>
necessary</w>
sweat</w>
pier
exten
absolutely</w>
boy
loose</w>
kate</w>
ryan</w>
proper
breaking</w>
mc
creature</w>
rushed</w>
inch</w>
tech
east</w>
hang</w>
motion</w>
folded</w>
eating</w>
dents</w>
yester
stic
mention</w>
fren
tail</w>
rising</w>
interesting</w>
burn</w>
wid
staf
bill</w>
sured</w>
blow</w>
sad</w>
leaves</w>
plans</w>
steady</w>
firm</w>
yesterday</w>
shee
ky
excuse</w>
sm</w>
naked</w>
ze
ctions</w>
other
ortun
cand
tightly</w>
whose</w>
amazing</w>
length</w>
public</w>
squeezed</w>
menti
sp</w>
yan
anim
button</w>
--
opportun
sus</w>
fist</w>
wonderful</w>
acher</w>
movement</w>
san</w>
card</w>
concentr
visible</w>
inc
refu
hill</w>
bloody</w>
matt</w>
exhau
rich</w>
lake</w>
mea
worst</w>
female</w>
tent</w>
fair
gentle</w>
carry</w>
warning</w>
jamie</w>
stories</w>
song</w>
clou
gree
cry
wrist</w>
danc
anx
brushed</w>
mark
sey</w>
sters</w>
dun
cole</w>
fy</w>
tied</w>
slo
diti
golden</w>
grey</w>
fault</w>
yard</w>
orig
fifteen</w>
psy
angel</w>
luck</w>
screaming</w>
safe
bles</w>
eless</w>
bree
black
caused</w>
bridge</w>
disgu
slept</w>
reve
court</w>
tern
hil
verse</w>
indic
stan</w>
tho
pool</w>
removed</w>
concern</w>
dged</w>
person
ational</w>
rise</w>
fortunately</w>
hungry</w>
posed</w>
fucking</w>
subject</w>
resul
ast
plane</w>
confu
studied</w>
ura</w>
cs</w>
ai
happens</w>
scious</w>
repeated</w>
works</w>
college</w>
agree</w>
regi
hou
upset</w>
officer</w>
numb
peace</w>
spee
mistake</w>
carrying</w>
released</w>
dirt</w>
start
reaction</w>
cer</w>
tau
19
fire
cil</w>
gue
snor
eled</w>
arrang
searching</w>
easier</w>
charge</w>
acting</w>
planned</w>
tter
tors</w>
bought</w>
itted</w>
chuckled</w>
charlie</w>
losing</w>
co</w>
thinks</w>
wings</w>
bringing</w>
cher</w>
bear
drawn</w>
landed</w>
comb
tters</w>
huh</w>
tip</w>
simon</w>
decide</w>
spected</w>
casu
ttle</w>
intro
hesitated</w>
shape</w>
gathered</w>
weapons</w>
suggested</w>
emotions</w>
written</w>
echo
accept</w>
resta
advan
restaur
ron
leading</w>
ue</w>
smooth</w>
ash
scrat
refused</w>
bone</w>
nearby</w>
calls</w>
edly</w>
sement</w>
curled</w>
star</w>
bye</w>
george</w>
jerked</w>
animal</w>
jump</w>
regar
mou
mail</w>
bitch</w>
deeper</w>
gly</w>
base</w>
ancy</w>
kie</w>
richard</w>
reality</w>
o'
ckets</w>
shoo
sca
shift</w>
favorite</w>
letter</w>
dirty</w>
staying</w>
smiles</w>
blank
shared</w>
double</w>
oo
roof</w>
ount</w>
pregn
showing</w>
luke</w>
prince</w>
touching</w>
lig
flight</w>
kn
shocked</w>
moti
smart</w>
train</w>
track</w>
avoid</w>
investig
regu
worn</w>
fill</w>
finger
fifty</w>
pleased</w>
stun
eyebrows</w>
everywhere</w>
kissing</w>
flashed</w>
local</w>
awk
support</w>
gas</w>
thering</w>
mood</w>
entirely</w>
spoken</w>
knocked</w>
strang
bus</w>
adv
ham</w>
narrow</w>
occu
domin
oped</w>
rooms</w>
saved</w>
warm
otherwise</w>
recognized</w>
gher</w>
closing</w>
spr
service</w>
spun</w>
introdu
deeply</w>
lily</w>
sal</w>
step
fts</w>
jan
py</w>
giant</w>
scan
sation</w>
heavi
ordin
libr
growled</w>
cars</w>
vul
conscious</w>
warmth</w>
silently</w>
ace
dal
bast
tual</w>
passing</w>
training</w>
eric</w>
clenched</w>
dust</w>
yor
teen
emily</w>
belly</w>
keys</w>
inn</w>
staff</w>
reply</w>
equ
attempt</w>
purpose</w>
itude</w>
exper
jun
inci
ples</w>
idi
shoot</w>
names</w>
experien
mountain</w>
prove</w>
discovered</w>
awake</w>
vious</w>
tle
honey</w>
sending</w>
extra</w>
answers</w>
rough</w>
xes</w>
excited</w>
soa
impre
lack</w>
inti
yers</w>
deck</w>
opportunity</w>
ships</w>
knee</w>
mentioned</w>
gift</w>
ella</w>
dragged</w>
beauty</w>
drunk</w>
tage</w>
nate</w>
milit
clut
bother</w>
helping</w>
mental</w>
surrounded</w>
belt</w>
tin</w>
named</w>
ica</w>
buried</w>
enemy</w>
smir
dest</w>
consider</w>
drawing</w>
problems</w>
shud
port</w>
bie</w>
desperate</w>
sand</w>
belon
writing</w>
plenty</w>
younger</w>
logan</w>
physical</w>
imagined</w>
pointing</w>
breathed</w>
interrupted</w>
tha</w>
mac
christmas</w>
brow</w>
narrowed</w>
stress</w>
aches</w>
proud</w>
horses</w>
apologi
evi
common</w>
steel</w>
process</w>
instant</w>
camp</w>
waves</w>
bank</w>
smal
excitement</w>
tit
setting</w>
vehi
faint</w>
grow</w>
groaned</w>
ants</w>
tory</w>
vity</w>
pictures</w>
serve</w>
tightened</w>
eased</w>
draw</w>
dozen</w>
brief</w>
langu
boss</w>
william</w>
corri
streets</w>
help
race</w>
fran
marriage</w>
eding</w>
faded</w>
determined</w>
movie</w>
myster
thumb</w>
crew</w>
honest
gives</w>
pressing</w>
ands</w>
voices</w>
spa
john
details</w>
vag
twel
file</w>
haw
zzy</w>
vi</w>
wiped</w>
vani
simil
admitted</w>
julia</w>
report</w>
gy
unted</w>
accomp
tv</w>
extre
week
lim
four
village</w>
pee
stars</w>
incredi
flash</w>
hug</w>
rope</w>
ancient</w>
drinking</w>
particular</w>
orders</w>
roy
machine</w>
difference</w>
safety</w>
pin
tim</w>
square</w>
detec
pressure</w>
due</w>
study</w>
flowers</w>
origin
ior</w>
bell</w>
grate
ski
sexy</w>
curious</w>
lots</w>
murder</w>
chief</w>
oner</w>
gods</w>
york</w>
govern
aband
expecting</w>
pause</w>
comfort</w>
relaxed</w>
boun
log
collap
dragon</w>
knock</w>
trail</w>
elevator</w>
larly</w>
dare</w>
plain</w>
lee</w>
castle</w>
planet</w>
evidence</w>
dest
believ
custom
bastard</w>
main
intel
tained</w>
shri
sucked</w>
forty</w>
ial</w>
sant</w>
honest</w>
considering</w>
vor</w>
angel
consci
materi
sac
gul
mi</w>
iron</w>
sink</w>
ast</w>
brush</w>
bound</w>
write</w>
becoming</w>
heart
restaurant</w>
pon
english</w>
block</w>
illu
horror</w>
command</w>
gers</w>
failed</w>
respect</w>
iny</w>
members</w>
loss</w>
vis</w>
eliza
leader</w>
sliding</w>
chris</w>
bing</w>
gabriel</w>
including</w>
glared</w>
ghs</w>
whom</w>
poured</w>
ems</w>
tear</w>
jim</w>
elizabeth</w>
responded</w>
page</w>
cabin</w>
antly</w>
ald</w>
throwing</w>
papers</w>
twelve</w>
aten</w>
stands</w>
hurry</w>
tony</w>
badly</w>
kick</w>
major</w>
slip</w>
swept</w>
op</w>
laun
ttering</w>
sie</w>
blame</w>
amount</w>
inj
net</w>
ell
const
lur
wheel</w>
sma
devel
facing</w>
parts</w>
swear</w>
attr
nowhere</w>
jesus</w>
amon
electri
firmly</w>
furi
stered</w>
lightly</w>
heels</w>
disc
rou
beast</w>
fool</w>
cle
lift</w>
frame</w>
ssions</w>
rob
bel</w>
spirit</w>
million</w>
charac
marry</w>
glow</w>
hurried</w>
test
lovely</w>
vor
presi
porch</w>
garden</w>
holy</w>
lean</w>
cave</w>
enjoyed</w>
tips</w>
fixed</w>
emotion</w>
hat</w>
remain</w>
josh</w>
cigar
reg
sion
lined</w>
respond</w>
jor
armed</w>
ius</w>
tucked</w>
sche
marked</w>
damned</w>
ridic
parked</w>
pulse</w>
ecu
jane</w>
mr</w>
irrit
gest</w>
understanding</w>
ander</w>
zes</w>
meal</w>
accor
match</w>
zo
solid</w>
fear
pace</w>
floo
features</w>
bird</w>
ric</w>
bigger</w>
pa</w>
ron</w>
zation</w>
military</w>
higher</w>
mun
massive</w>
stronger</w>
ill
planning</w>
slight</w>
challen
release</w>
flat
noah</w>
backed</w>
girl
ha</w>
insisted</w>
mm</w>
struggled</w>
bble</w>
ffled</w>
when
snea
betra
ppy</w>
mmy</w>
engine</w>
ting
pulls</w>
zane</w>
travel</w>
spell</w>
thrust</w>
french</w>
sean</w>
ics</w>
frank</w>
government</w>
eling</w>
tables</w>
boyfriend</w>
crap</w>
signs</w>
winter</w>
upstairs</w>
threat</w>
steve</w>
american</w>
blur
orted</w>
liqu
duc
mbs</w>
ere
ouses</w>
olivia</w>
blanket</w>
accident</w>
plastic</w>
billy</w>
vac
earance</w>
norm
camera</w>
za</w>
whenever</w>
esc
uncomfortable</w>
snar
offici
inha
events</w>
embr
sharp
merely</w>
lace</w>
pet</w>
cared</w>
fed</w>
raise</w>
amy</w>
reasons</w>
briefly</w>
tional</w>
appear</w>
gran
ignore</w>
covering</w>
dep
library</w>
smelled</w>
anticip
fashi
eyebrow</w>
neath</w>
agent</w>
flames</w>
gain</w>
spring</w>
thighs</w>
gripped</w>
ade</w>
starts</w>
council</w>
choose</w>
connor</w>
bom
pleasant</w>
grateful</w>
capable</w>
intense</w>
puni
victor
asse
intment</w>
enter</w>
relax</w>
effect</w>
ousness</w>
relieved</w>
daddy</w>
gradu
startled</w>
sno
ridicul
joy</w>
blond</w>
woul
tively</w>
blew</w>
manag
cott
created</w>
thri
purse</w>
confusion</w>
nific
mid</w>
mia</w>
fired</w>
expen
convinced</w>
geous</w>
whel
tang
heavily</w>
profess
identi
kisses</w>
pile</w>
style</w>
equi
sage</w>
actions</w>
gentle
distur
slide</w>
balls</w>
reluc
underneath</w>
dag
weekend</w>
dancing</w>
audi
pure</w>
kal
gw
seven
ess
forgot</w>
inches</w>
thrown</w>
ki</w>
somebody</w>
tension</w>
shield</w>
rules</w>
organi
wre
sequ
survive</w>
han</w>
fab
indu
orange</w>
handsome</w>
guilt</w>
section</w>
half
would
passen
animals</w>
fan</w>
yne</w>
normally</w>
ripped</w>
cele
jeal
logy</w>
weak
jose
xing</w>
distant</w>
ferred</w>
shy</w>
ivy</w>
connection</w>
stopping</w>
birth
innocent</w>
assumed</w>
conten
blake</w>
radio</w>
received</w>
chairs</w>
clouds</w>
warned</w>
suspic
resting</w>
pissed</w>
hope
stranger</w>
tells</w>
mely</w>
wow</w>
deb
monster</w>
miser
shment</w>
dia</w>
fying</w>
widened</w>
active</w>
horrible</w>
ences</w>
rel</w>
accepted</w>
xi</w>
bags</w>
split</w>
del</w>
picking</w>
eption</w>
urge</w>
ris</w>
consu
bastian</w>
meaning</w>
communic
ference</w>
life
itting</w>
unfortunately</w>
rubbing</w>
cloud</w>
language</w>
kir
honor</w>
connected</w>
various</w>
tunnel</w>
stream</w>
qua
houses</w>
cassie</w>
ri</w>
celebr
duty</w>
author
ddled</w>
mple</w>
practice</w>
liter
ert</w>
tedly</w>
fier
wling</w>
fix</w>
yn
practically</w>
ona</w>
rows</w>
cash</w>
light
mortal</w>
upper</w>
cam
overwhel
plat
loudly</w>
gas
br</w>
treated</w>
rid</w>
current</w>
appreciate</w>
examin
carol
swir
buildings</w>
rever
taught</w>
gan
alright</w>
changing</w>
judge</w>
rescu
ocean</w>
kat
treat</w>
dropping</w>
blon
nights</w>
thank
clothing</w>
creatures</w>
ington</w>
sake</w>
powers</w>
similar</w>
washed</w>
nails</w>
hint</w>
pounding</w>
intended</w>
pregnant</w>
tery</w>
nal</w>
stumbled</w>
struc
increas
iz
occur
london</w>
aces</w>
damage</w>
ghtening</w>
wolves</w>
belief</w>
rocks</w>
progra
harry</w>
flipped</w>
puzz
searched</w>
vibr
shly</w>
breeze</w>
hugged</w>
robert</w>
tress</w>
ury</w>
plus</w>
lers</w>
president</w>
jared</w>
abby</w>
ful
fat</w>
sank</w>
pit</w>
bui
bond</w>
lucas</w>
cryst
witched</w>
awful</w>
stir
build</w>
notes</w>
grandmother</w>
smaller</w>
sky
soldier</w>
mum</w>
crack</w>
dawn</w>
beha
lungs</w>
chose</w>
balance</w>
killer</w>
nods</w>
nurse</w>
christian</w>
grant</w>
corridor</w>
walks</w>
honestly</w>
spotted</w>
announced</w>
silk</w>
temple</w>
avoi
hard
froze</w>
acle</w>
joke</w>
ms.</w>
ized</w>
ghost</w>
closet</w>
confe
satur
dar</w>
weather</w>
frozen</w>
girlfriend</w>
kev
students</w>
glancing</w>
patter
guns</w>
would've</w>
exist
lung</w>
ladies</w>
peered</w>
sexu
stled</w>
chamber</w>
tower</w>
fists</w>
20
prison</w>
trembling</w>
stair
civi
dit
circum
recognize</w>
ign</w>
ety</w>
lands</w>
princess</w>
tries</w>
professor</w>
wro
grim
photogra
points</w>
asm</w>
tial</w>
chain</w>
sebastian</w>
compar
begun</w>
gency</w>
desperately</w>
text</w>
suspected</w>
feed</w>
statement</w>
enjoying</w>
sau
julian</w>
harm</w>
mountains</w>
grabbing</w>
destroy</w>
chosen</w>
frustration</w>
conclu
day
marcus</w>
add</w>
stiff
returning</w>
causing</w>
cloth</w>
grand</w>
play
guilty</w>
cles</w>
everybody</w>
escaped</w>
larger</w>
filling</w>
spine</w>
abrup
pride</w>
downstairs</w>
faith</w>
jeff</w>
forgive</w>
explan
journey</w>
fate</w>
beating</w>
charles</w>
dless</w>
smel
climb</w>
bor</w>
rian</w>
post</w>
itor</w>
numbers</w>
regret</w>
cracked</w>
initi
manage</w>
rear</w>
confir
instinc
towel</w>
particularly</w>
lifting</w>
cken</w>
through
roa
sane</w>
andrew</w>
waste</w>
alarm</w>
ive</w>
stepping</w>
abruptly</w>
parted</w>
bench</w>
sensation</w>
invit
unex
plo
partner</w>
descen
deca
landing</w>
pack
whir
flin
ignoring</w>
skirt</w>
cream</w>
bunch</w>
stab
assist
encou
conc
smith</w>
correct</w>
tless</w>
comment</w>
mari
assured</w>
stunned</w>
ridiculous</w>
amb
mani
broo
whoever</w>
elbow</w>
bay</w>
idiot</w>
ava
sara</w>
mis
tilted</w>
gazed</w>
demons</w>
tender</w>
envel
gus</w>
ffs</w>
impati
gesture</w>
inner</w>
task</w>
scott</w>
intellig
greg
riding</w>
cher
dogs</w>
ath
therine</w>
cute</w>
snu
stones</w>
packed</w>
throughout</w>
opin
crou
heaven</w>
tugged</w>
cee
tore</w>
exhausted</w>
progre
garage</w>
bob</w>
tta</w>
nia</w>
friendly</w>
gle</w>
sofa</w>
erie</w>
claim</w>
ckles</w>
checking</w>
cale
brilli
rog
warrior</w>
wrote</w>
schedu
ax
cauti
dollars</w>
make
stances</w>
shooting</w>
popped</w>
gorgeous</w>
awkward</w>
pretend</w>
silly</w>
drifted</w>
rhy
ker
ler
dat
purple</w>
hissed</w>
grandfather</w>
ac</w>
experienced</w>
compe
blonde</w>
m.</w>
won</w>
birthday</w>
fury</w>
expl
scat
dug</w>
cting</w>
rule</w>
raced</w>
chocol
hundre
attacked</w>
sse</w>
bowl</w>
series</w>
painful</w>
compla
sheri
angs</w>
enter
cho</w>
las</w>
ko</w>
snat
approach</w>
traf
trapped</w>
appearance</w>
address</w>
remaining</w>
backward</w>
terrified</w>
traffic</w>
moves</w>
colored</w>
ends</w>
proper</w>
cem
senten
sku
omed</w>
price</w>
gil
toes</w>
matters</w>
sip</w>
spla
gut</w>
ugly</w>
elds</w>
televi
wher
total</w>
mask</w>
los</w>
embarrassed</w>
gage</w>
palms</w>
source</w>
sheet</w>
pillow</w>
aly
exit</w>
autom
sized</w>
ols</w>
obe
vehicle</w>
sensed</w>
ex</w>
pen</w>
pot</w>
vide
target</w>
secrets</w>
rev
paying</w>
tary</w>
meat</w>
advantage</w>
farther</w>
bra</w>
detective</w>
ole</w>
need
retri
suit
iety</w>
glea
volu
sophie</w>
alco
halfway</w>
cock</w>
inct</w>
eager</w>
painted</w>
seated</w>
access</w>
sping</w>
satisfied</w>
recently</w>
bowed</w>
dean</w>
destroyed</w>
hip</w>
frightened</w>
broad</w>
falls</w>
roman
skull</w>
wash</w>
sooner</w>
there
echoed</w>
map</w>
tristan</w>
letters</w>
muscle</w>
rence</w>
ope</w>
glimp
glowing</w>
zar
rode</w>
mn</w>
jo</w>
hawk</w>
cali
somewhat</w>
ckled</w>
cost</w>
straightened</w>
previous</w>
games</w>
member</w>
nit
possibility</w>
enor
nathan</w>
meli
foun
king
responsible</w>
surrounding</w>
guessed</w>
torn</w>
protection</w>
clan</w>
success
cutting</w>
marks</w>
convince</w>
caleb</w>
likes</w>
dining</w>
bott
frown</w>
exclaimed</w>
depen
flick
teacher</w>
trained</w>
eddie</w>
according</w>
sisters</w>
ggy</w>
bella</w>
asy</w>
defe
victoria</w>
legal</w>
footsteps</w>
mented</w>
cred
regular</w>
discuss</w>
version</w>
were
ob</w>
stern</w>
kic
cop</w>
sounding</w>
spark
manner</w>
holi
logical</w>
television</w>
kid
great
catching</w>
smu
cous
holds</w>
ple
curse</w>
mumbled</w>
tee</w>
unlike</w>
cousin</w>
forcing</w>
prison
favor</w>
yanked</w>
osity</w>
sav
kelly</w>
volun
tapped</w>
ourselves</w>
struction</w>
strike</w>
occurred</w>
andra</w>
behavi
ade
thigh</w>
lay
location</w>
degre
lucy</w>
dismi
vio
ills</w>
aman
land
tough</w>
gaz
thern</w>
images</w>
christ</w>
birth</w>
dian</w>
terror</w>
danny</w>
sympa
cage</w>
clearing</w>
ordinary</w>
challenge</w>
blank</w>
project</w>
stated</w>
orn</w>
spra
pple</w>
loe</w>
com</w>
sunlight</w>
tral</w>
deserve</w>
bbled</w>
zz</w>
unexp
event</w>
mare</w>
cigarette</w>
load</w>
replaced</w>
bored</w>
xi
oughly</w>
hec
contr
shade</w>
closely</w>
nau
home
drive
dily</w>
grinning</w>
slapped</w>
band
quarters</w>
dylan</w>
phy</w>
yards</w>
seless</w>
raising</w>
wic
existence</w>
gestured</w>
trace</w>
poten
brian</w>
shame</w>
fled</w>
morgan</w>
hannah</w>
vanished</w>
snorted</w>
johnny</w>
hunt</w>
leans</w>
drank</w>
hundreds</w>
glare</w>
senses</w>
confidence</w>
attached</w>
explanation</w>
universe</w>
ish</w>
admir
pidly</w>
chocolate</w>
pisto
record</w>
riley</w>
crime</w>
jeremy</w>
drake</w>
original</w>
serge
research</w>
decor
professi
by
medical</w>
pied</w>
palace</w>
bits</w>
crystal</w>
stand
ised</w>
anda</w>
loaded</w>
bread</w>
driveway</w>
julie</w>
birds</w>
devil</w>
declar
thless</w>
invited</w>
struggling</w>
smooth
stag
issue</w>
fence</w>
shakes</w>
former</w>
licked</w>
breast</w>
alice</w>
ghty</w>
property</w>
susan</w>
hitting</w>
ghten</w>
fellow</w>
agreement</w>
remembering</w>
jacob</w>
vent</w>
tray</w>
thetic</w>
settle</w>
thor</w>
remo
trusted</w>
blan
etern
saturday</w>
mist</w>
frow
ises</w>
liquid</w>
louder</w>
ssm
arm
sons</w>
bothered</w>
di</w>
dder</w>
tan</w>
exha
gown</w>
loving</w>
earl</w>
slowed</w>
damp</w>
cursed</w>
avail
assume</w>
bullet</w>
chloe</w>
maggie</w>
stroked</w>
rie</w>
social</w>
o'clock</w>
scar</w>
oring</w>
happiness</w>
arched</w>
hunting</w>
cake</w>
extended</w>
placing</w>
bows</w>
nodding</w>
eg
keeps</w>
predic
argue</w>
spor
centu
py
fea
cops</w>
teach</w>
batt
anybody</w>
accu
real
scru
zens</w>
sharply</w>
bled</w>
sue</w>
genu
kevin</w>
tense</w>
patted</w>
complic
craft</w>
thought
extremely</w>
lightning</w>
eral</w>
drinks</w>
deas</w>
squir
insul
execu
pment</w>
tantly</w>
ya
dra</w>
telep
athan</w>
dal</w>
conce
blind</w>
noted</w>
sheets</w>
ckle</w>
thousands</w>
stling</w>
jected</w>
chill</w>
shine</w>
dish</w>
eas</w>
available</w>
proof</w>
confident</w>
but
zom
jenny</w>
suspect</w>
wind
dave</w>
thus</w>
moon
passion</w>
mere</w>
department</w>
object</w>
cca</w>
brick</w>
drug</w>
racing</w>
required</w>
states</w>
abandoned</w>
helen</w>
pop</w>
material</w>
lotte</w>
brand
faction</w>
guests</w>
jects</w>
elia</w>
sunday</w>
covers</w>
punch</w>
jackson</w>
lled</w>
wy
sper
ggled</w>
approaching</w>
wrap</w>
horiz
virg
account</w>
clue</w>
ffin</w>
friday</w>
sexual</w>
society</w>
bour
goo
promp
ari</w>
pockets</w>
forming</w>
amanda</w>
non</w>
farm</w>
elli
forms</w>
afford</w>
expensive</w>
studying</w>
butt</w>
swing</w>
paint</w>
shane</w>
amber</w>
scienti
roger</w>
drag</w>
clay</w>
cook</w>
ris
shal
jonathan</w>
freedom</w>
ggs</w>
spect
bo</w>
mass</w>
ison</w>
disappointed</w>
rier</w>
para
jon</w>
advice</w>
passenger</w>
cards</w>
strode</w>
exposed</w>
enormous</w>
elt</w>
angle</w>
temper
sheriff</w>
grasp</w>
tness</w>
whispers</w>
sees</w>
inged</w>
ffy</w>
russi
rifle</w>
threatened</w>
wrink
otic</w>
shots</w>
emerged</w>
nervously</w>
circumstances</w>
dating</w>
insane</w>
curiosity</w>
tened</w>
code</w>
lab</w>
bes</w>
hen</w>
soo
ene</w>
blood
stion</w>
desert</w>
treas
patient</w>
bi</w>
esome</w>
sell</w>
deliber
halt</w>
raw</w>
offering</w>
becca</w>
mile</w>
moaned</w>
pad</w>
sensit
edith</w>
lately</w>
ress</w>
trick</w>
flame</w>
evan</w>
kidding</w>
sley</w>
encoura
background</w>
obli
brilliant</w>
display</w>
zard</w>
jim
opinion</w>
eleven</w>
cap</w>
brows</w>
feared</w>
robe</w>
charlotte</w>
moder
responsi
crete</w>
remind</w>
arely</w>
loves</w>
haired</w>
matthe
rin
shown</w>
amused</w>
runs</w>
bars</w>
commander</w>
patrick</w>
creep
plun
fake</w>
ti</w>
ideas</w>
conven
video</w>
mac</w>
wear
hopefully</w>
vet</w>
melissa</w>
squeeze</w>
informed</w>
violet</w>
rings</w>
revealed</w>
create</w>
stops</w>
clau
spending</w>
allowing</w>
magaz
weal
laura</w>
kati
.m.</w>
jordan</w>
national</w>
bull
bleeding</w>
direct</w>
boxes</w>
drops</w>
shopping</w>
nerves</w>
impressed</w>
gasp</w>
appo
employ
collapsed</w>
tis</w>
grief</w>
martin</w>
grave</w>
ency</w>
photo</w>
mmer
overhead</w>
sandwic
painting</w>
shore</w>
newspa
vidu
agged</w>
bike</w>
gathering</w>
market</w>
charged</w>
individu
deal
scal
invisible</w>
proved</w>
lyn</w>
fabric</w>
eep</w>
compan
mad
answering</w>
trailed</w>
midnight</w>
precious</w>
adju
ellie</w>
rhyth
result</w>
solve</w>
link</w>
concrete</w>
archi
rett</w>
boring</w>
jewel
belle</w>
shining</w>
versity</w>
alle
icy</w>
benef
harsh</w>
ela
quit</w>
jessi
ori
lawyer</w>
ais
uniform</w>
belonged</w>
dle</w>
jace</w>
delicate</w>
detail</w>
deserved</w>
bren
valley</w>
intri
ho</w>
cough
royal</w>
tracks</w>
vulner
strained</w>
realizing</w>
laughs</w>
spare</w>
proce
changes</w>
scanned</w>
sport</w>
rushing</w>
veins</w>
witne
slipping</w>
tically</w>
cases</w>
cliff</w>
exploded</w>
famous</w>
appropri
trent</w>
alley</w>
exact</w>
ested</w>
snap</w>
provided</w>
spinning</w>
worl
jessica</w>
alli
yden</w>
eaten</w>
career</w>
guest</w>
colin</w>
onable</w>
drow
crawled</w>
shouting</w>
motioned</w>
----
gen</w>
pay
jesse</w>
pages</w>
terms</w>
singing</w>
katie</w>
ption</w>
religi
till</w>
lover</w>
lec
thusi
stained</w>
singly</w>
ghted</w>
mic</w>
airport</w>
mixed</w>
derek</w>
assass
aye</w>
kyle</w>
mama</w>
eness</w>
isy</w>
sarca
core</w>
victor</w>
pea
waving</w>
drugs</w>
rolls</w>
adven
sphere</w>
goodbye</w>
rome</w>
tracted</w>
exist</w>
collar</w>
mel</w>
exer
kat</w>
sday</w>
chy</w>
copy</w>
aceful</w>
ilities</w>
fairly</w>
shuddered</w>
lian</w>
trunk</w>
fanta
robo
work
owner</w>
enthusi
sick
remains</w>
consider
condition</w>
crash</w>
range</w>
branches</w>
pistol</w>
distracted</w>
diamon
actual</w>
wash
equipment</w>
lad</w>
student</w>
seats</w>
ist
chicken</w>
shivered</w>
liz</w>
paris</w>
achi
flicked</w>
screams</w>
basi
champ
resist</w>
fingertips</w>
icky</w>
colors</w>
ix</w>
dick</w>
arranged</w>
period</w>
mud</w>
hunger</w>
announ
knelt</w>
dim</w>
tals</w>
excell
close
sergeant</w>
alty</w>
embrace</w>
10</w>
rare</w>
stubb
rapidly</w>
ot
friend
nine
ville</w>
shaped</w>
shrug</w>
aring</w>
niture</w>
furniture</w>
hero</w>
grat
gues</w>
yly</w>
gavin</w>
signific
flushed</w>
height</w>
colon
lust</w>
credit</w>
cab</w>
swallow</w>
cement</w>
panties</w>
ro</w>
behavior</w>
pete</w>
joseph</w>
disappear</w>
shorts</w>
tant</w>
happily</w>
pilot</w>
courage</w>
arrive</w>
request</w>
kim</w>
edward</w>
families</w>
sold</w>
crack
milk</w>
speech</w>
corp
rout
flowing</w>
based</w>
incredible</w>
defense</w>
university</w>
officers</w>
matthew</w>
annie</w>
ral
kylie</w>
scattered</w>
dec
mara</w>
ators</w>
sentence</w>
sweat
jealous</w>
'em</w>
teasing</w>
choked</w>
wounds</w>
sits</w>
dg
beard</w>
protest</w>
digging</w>
emergency</w>
secure</w>
reveal</w>
nasty</w>
neck
lating</w>
trap</w>
jenni
greeted</w>
knocking</w>
glit
corners</w>
driven</w>
jennifer</w>
unusual</w>
knu
bile</w>
duke</w>
darling</w>
calmly</w>
annoyed</w>
sel</w>
tate</w>
tar</w>
dd</w>
warriors</w>
disbelief</w>
constant</w>
dragging</w>
marie</w>
ong
zer</w>
matic</w>
stuffed</w>
amusement</w>
tale</w>
gather</w>
shif
sty
ffing</w>
crept</w>
glor
deny</w>
child
argument</w>
derly</w>
house
ita</w>
remove</w>
furious</w>
oil</w>
anxious</w>
symbo
gear</w>
learning</w>
punched</w>
hin
excellent</w>
alien</w>
frank
ado
bac
ay</w>
begins</w>
ylor</w>
wrists</w>
mmered</w>
revealing</w>
ga</w>
hid</w>
priest</w>
jerk</w>
oes</w>
naturally</w>
arily</w>
ratt
breaths</w>
plant</w>
nightmare</w>
delicious</w>
claws</w>
rupt</w>
satisfaction</w>
fourth</w>
directions</w>
knight</w>
america</w>
ditional</w>
recall</w>
occupied</w>
ila</w>
survived</w>
stiff</w>
cerem
docu
crimin
contra
centuries</w>
dled</w>
hurting</w>
professional</w>
statu
coach</w>
minds</w>
skills</w>
kets</w>
barn</w>
show
ggest</w>
dealing</w>
teased</w>
colu
stry</w>
pity</w>
meredith</w>
biggest</w>
deon</w>
aria</w>
shortly</w>
dressing</w>
sidewalk</w>
rest
casual</w>
groan</w>
flash
syl
vement</w>
rob</w>
backs</w>
drag
hank</w>
shattered</w>
option</w>
red
scul
neg
carpet</w>
gabe</w>
chased</w>
blast</w>
term</w>
lux
progress</w>
biting</w>
tasted</w>
upward</w>
rescue</w>
exchange</w>
role</w>
acu
canc
ority</w>
impression</w>
fort</w>
pick
alec</w>
pha
circles</w>
jimmy</w>
ora</w>
fog</w>
bal</w>
crowded</w>
bath</w>
climbing</w>
wishing</w>
wounded</w>
eighteen</w>
dante</w>
flar
dude</w>
apologize</w>
kha
separate</w>
rate</w>
dull</w>
associ
ulti
swif
lia</w>
aver
sher
flow</w>
frequ
unknown</w>
tape</w>
emotional</w>
fangs</w>
forces</w>
provide</w>
winked</w>
veled</w>
justice</w>
vey</w>
doc</w>
st.</w>
taining</w>
dried</w>
bou
ier</w>
flir
momen
fur</w>
suck</w>
seful</w>
belong</w>
contents</w>
floating</w>
rese
gates</w>
dagger</w>
mper
cia</w>
ribs</w>
crossing</w>
sensitive</w>
grunted</w>
kane</w>
advi
nis</w>
estab
shout</w>
lobby</w>
tyler</w>
ented</w>
edges</w>
tank</w>
pus</w>
whipped</w>
struggle</w>
inny</w>
danced</w>
therefore</w>
dami
vern</w>
clutched</w>
roared</w>
nearest</w>
suggest</w>
influ
football</w>
tempor
wandered</w>
liar</w>
consequ
gained</w>
tipped</w>
inva
assi
demon
sional</w>
success</w>
tarily</w>
folks</w>
li</w>
emies</w>
bang
react</w>
stolen</w>
yep</w>
enemies</w>
rent</w>
hair
makeup</w>
ridge</w>
i.</w>
puts</w>
lions</w>
audience</w>
micro
fields</w>
eves</w>
roar</w>
wrapping</w>
trade</w>
shifting</w>
infec
illumin
centur
brave</w>
sch
upright</w>
tighter</w>
stretch</w>
owned</w>
serving</w>
zer
cts</w>
quinn</w>
cow
greater</w>
manu
vier</w>
brushing</w>
recent</w>
drawer</w>
literally</w>
community</w>
compli
attractive</w>
eth
healthy</w>
conveni
snake</w>
kicking</w>
stance</w>
jumping</w>
spy</w>
strip</w>
valu
scree
accent</w>
steal</w>
century</w>
anticipation</w>
breasts</w>
trevor</w>
kidna
chea
expan
bitter</w>
injured</w>
ars</w>
perman
mpled</w>
rarely</w>
switch</w>
inspec
movements</w>
buddy</w>
pir
dated</w>
cleaning</w>
assistant</w>
sta</w>
cabin
horizon</w>
monday</w>
fierce</w>
cocked</w>
ral</w>
sixteen</w>
ny
threatening</w>
winced</w>
fancy</w>
glances</w>
shows</w>
opens</w>
mo</w>
humor</w>
activ
located</w>
crashed</w>
hol</w>
cupped</w>
dee</w>
water
figu
mystery</w>
flower</w>
tha
lane</w>
repu
post
lished</w>
bolt</w>
reaches</w>
experim
camp
protected</w>
onic</w>
ceeded</w>
victim</w>
vels</w>
finn</w>
wardly</w>
closest</w>
brad</w>
absor
gent</w>
unexpected</w>
acknowle
positive</w>
jet</w>
signal</w>
lei
hook</w>
shiver</w>
sweethe
cloak</w>
casually</w>
yelling</w>
ssment</w>
corpor
popul
potential</w>
tour</w>
surance</w>
alert</w>
ducked</w>
character</w>
ara</w>
united</w>
hills</w>
bin
adrian</w>
science</w>
items</w>
route</w>
leapt</w>
clicked</w>
stock</w>
suspicious</w>
aid</w>
scary</w>
operation</w>
alexander</w>
holes</w>
complicated</w>
boot</w>
twin</w>
ann</w>
psycho
guide</w>
patch</w>
confirmed</w>
stroke</w>
missi
tag
erin</w>
wan</w>
citi
bry
throne</w>
solved</w>
disappointment</w>
patience</w>
laying</w>
ced
sadness</w>
appropriate</w>
glimpse</w>
content</w>
sum
fred</w>
lonely</w>
consciousness</w>
reven
existed</w>
basement</w>
dess</w>
string</w>
march</w>
endless</w>
fashion</w>
giggled</w>
eleg
reluctantly</w>
neighbor
elena</w>
arou
vast</w>
erup
deadly</w>
thful</w>
techn
permission</w>
frustrated</w>
ruin</w>
ma'
program</w>
supplies</w>
sideways</w>
sugar</w>
movies</w>
nest</w>
nope</w>
envelope</w>
berry</w>
saving</w>
crit
echo</w>
tney</w>
sweetheart</w>
alie</w>
dney</w>
vit
polite</w>
saf
modern</w>
duncan</w>
imagination</w>
jail</w>
accoun
swiftly</w>
ruined</w>
cock
ese</w>
prefer</w>
blocks</w>
suring</w>
growl</w>
armor</w>
lon</w>
sleeve</w>
backpack</w>
sharing</w>
violent</w>
glin
idan</w>
tub</w>
handful</w>
lest</w>
toe</w>
zza</w>
sively</w>
oper</w>
mason</w>
circled</w>
mates</w>
hmm</w>
garrett</w>
stagg
jay</w>
aloud</w>
attempted</w>
dant</w>
flor
bic
begged</w>
limbs</w>
settling</w>
lic</w>
bride</w>
backwards</w>
properly</w>
holly</w>
device</w>
chaos</w>
toi
moan</w>
mitch</w>
awa
blowing</w>
shell</w>
mercy</w>
grim</w>
disgust</w>
distri
astoni
pattern</w>
eable</w>
stole</w>
thick
heal</w>
perc
merci
om</w>
unconscious</w>
aidan</w>
chances</w>
swinging</w>
hired</w>
attitude</w>
dul
constantly</w>
flashing</w>
ential</w>
sin</w>
pical</w>
contem
alcohol</w>
arrival</w>
lisa</w>
dock</w>
clin
useless</w>
inge</w>
shiny</w>
ma'am</w>
divor
note
conditi
official</w>
swore</w>
dwar
rip</w>
health</w>
cart</w>
worthy</w>
owe</w>
central</w>
pretending</w>
meter</w>
book
reck
curve</w>
beg</w>
gwen</w>
fascin
eva</w>
broad
doubted</w>
agony</w>
discover</w>
figures</w>
decent</w>
vulnerable</w>
amaz
estate</w>
theory</w>
iting</w>
bobby</w>
ghters</w>
posing</w>
highway</w>
tribu
responsibility</w>
multi
weigh
min</w>
twisting</w>
tably</w>
sia</w>
andy</w>
territ
captured</w>
scrambled</w>
carriage</w>
iming</w>
mmering</w>
reflection</w>
witness</w>
mattered</w>
lac
commit
taylor</w>
aar
wicked</w>
coast</w>
unit</w>
blink</w>
sionally</w>
contained</w>
tire</w>
neu
tile</w>
itable</w>
whispering</w>
educ
dging</w>
cruel</w>
hollow</w>
kri
pare</w>
sten</w>
aning</w>
keeper</w>
tess</w>
judg
intent</w>
heartbeat</w>
presented</w>
lamp</w>
flies</w>
incredibly</w>
appears</w>
jess</w>
structure</w>
collection</w>
occasionally</w>
12</w>
loun
countered</w>
suffering</w>
impact</w>
fruit</w>
lum</w>
molly</w>
servant</w>
employe
romantic</w>
gideon</w>
classes</w>
squea
spirits</w>
balcon
pouring</w>
cleaned</w>
random</w>
ection</w>
safely</w>
planted</w>
annon</w>
babe</w>
zach</w>
traveled</w>
ku
photos</w>
vine</w>
justin</w>
prepare</w>
kinds</w>
hammer</w>
acts</w>
arrow</w>
declared</w>
unsure</w>
darkened</w>
ye
directed</w>
11</w>
frowning</w>
sets</w>
shrie
vants</w>
explosion</w>
maria</w>
ox
encer</w>
dges</w>
hesitation</w>
wanna</w>
darted</w>
stares</w>
jol
iler</w>
trial</w>
friendship</w>
elling</w>
branch</w>
awesome</w>
utter
possessed</w>
melo
sally</w>
torture</w>
percent</w>
treat
introduced</w>
highly</w>
successful</w>
purpo
ghtest</w>
crouched</w>
clutching</w>
flung</w>
wherever</w>
marble</w>
heated</w>
waking</w>
bies</w>
sophia</w>
brandon</w>
''</w>
personally</w>
elbows</w>
brand</w>
sucking</w>
servants</w>
bio
ali</w>
intru
violence</w>
pounded</w>
colonel</w>
melted</w>
ira</w>
stirred</w>
souls</w>
ano</w>
quarter</w>
sheer</w>
oping</w>
karen</w>
useful</w>
delivered</w>
fold</w>
foolish</w>
snatched</w>
lesson</w>
itali
snarled</w>
author</w>
cely</w>
sole</w>
helpless</w>
rat</w>
mai
director</w>
soaked</w>
ego</w>
traveling</w>
miranda</w>
males</w>
oul</w>
ador
colt</w>
issues</w>
slumped</w>
physically</w>
seek</w>
tre</w>
ano
inger</w>
compre
screwed</w>
grandma</w>
spilled</w>
childhood</w>
hooked</w>
suits</w>
techno
flan
magical</w>
plates</w>
compared</w>
intensity</w>
carved</w>
ppers</w>
mck
funeral</w>
teleph
terr
sor</w>
butter
discussion</w>
fortune</w>
mattress</w>
altern
protective</w>
dig</w>
screw</w>
intelligence</w>
maid</w>
sten
wester
mau
heather</w>
entering</w>
questioned</w>
eggs</w>
resu
mentally</w>
laptop</w>
schedule</w>
jax</w>
intention</w>
separated</w>
ester</w>
cheese</w>
lucien</w>
pounds</w>
shelf</w>
begging</w>
england</w>
rap
30</w>
temper</w>
healing</w>
facts</w>
curved</w>
trembled</w>
rain
dens</w>
nicole</w>
abilities</w>
tati
psychi
grade</w>
turing</w>
ava</w>
false</w>
manager</w>
surprisingly</w>
needing</w>
pan</w>
passage</w>
spat</w>
snow
shone</w>
ollen</w>
freaking</w>
thunder
stack</w>
pizza</w>
neil</w>
daily</w>
wire</w>
gym</w>
puzzled</w>
vincent</w>
shua</w>
alan</w>
trigger</w>
arrog
incident</w>
teenag
clung</w>
califor
locks</w>
solution</w>
neighborhood</w>
instructions</w>
client</w>
rily</w>
latest</w>
rice</w>
aire</w>
instinct</w>
complex</w>
owen</w>
sticking</w>
bid</w>
spreading</w>
rey</w>
dripping</w>
tommy</w>
licen
preferred</w>
lyn
oted</w>
blinking</w>
rounded</w>
incl
dation</w>
bron
tane
moonlight</w>
verti
ump
suite</w>
realm</w>
exchanged</w>
sought</w>
murdered</w>
chuckle</w>
caring</w>
rhythm</w>
majest
itual</w>
joining</w>
cooking</w>
inev
lawn</w>
tren
mex
wildly</w>
aline</w>
suffer</w>
tara</w>
aaron</w>
click</w>
pou
visited</w>
nings</w>
preparing</w>
inqu
shelter</w>
mexic
neighb
surren
curls</w>
controlled</w>
blocked</w>
hanna</w>
degree</w>
refuse</w>
helic
bullshit</w>
mug</w>
mysterious</w>
pinned</w>
newspaper</w>
crushed</w>
blown</w>
wipe</w>
carter</w>
sher</w>
odd
brings</w>
fain
salt</w>
ringing</w>
todd</w>
ban</w>
lexi</w>
habit</w>
demand</w>
volunte
switched</w>
tenant</w>
immediate</w>
swollen</w>
observed</w>
suffered</w>
knuckles</w>
freak</w>
tensed</w>
spencer</w>
ket</w>
greatest</w>
abu
holiday</w>
mond</w>
dumb</w>
super</w>
stroking</w>
grimaced</w>
witches</w>
pat</w>
staircase</w>
california</w>
stool</w>
mbl
exerci
ba</w>
kins</w>
example</w>
swords</w>
utterly</w>
warn</w>
courty
logi
ints</w>
raven</w>
activity</w>
balcony</w>
stable</w>
flowed</w>
included</w>
gary</w>
boar
yell</w>
din</w>
hopes</w>
bottles</w>
trash</w>
ppled</w>
will
ankle</w>
smirk</w>
nly</w>
orgasm</w>
sl
nerve</w>
rude</w>
cries</w>
suspici
inda</w>
sorts</w>
scowled</w>
candy</w>
murder
continues</w>
coinci
helicop
haven</w>
tched</w>
tearing</w>
roland</w>
dale</w>
season</w>
cotton</w>
repeat</w>
joshua</w>
nation</w>
hh
dipped</w>
anxiety</w>
twins</w>
spite</w>
isaac</w>
gentleman</w>
dreamed</w>
waters</w>
crown</w>
concentrate</w>
contract</w>
rig
jessie</w>
phra
obse
lieu
sadly</w>
pie</w>
tionally</w>
yor</w>
design</w>
twist</w>
remote</w>
booth</w>
drained</w>
ski</w>
foreign</w>
sps</w>
gloves</w>
geon</w>
andre
nichol
damon</w>
revenge</w>
dil
bbling</w>
produced</w>
offen
strangely</w>
wagon</w>
oming</w>
defend</w>
thirteen</w>
iri
pin</w>
emon</w>
sore</w>
oured</w>
mix</w>
investigation</w>
ladder</w>
stiffened</w>
spit</w>
classi
designed</w>
leo</w>
interview</w>
mper</w>
gripping</w>
daisy</w>
zie</w>
caroline</w>
buttons</w>
fia</w>
cautiously</w>
goddess</w>
related</w>
presu
slave</w>
avoiding</w>
mmm</w>
brit
plants</w>
boards</w>
nipple</w>
manipul
phe
authority</w>
swimming</w>
io</w>
guit
smirked</w>
lighting</w>
babies</w>
equally</w>
tops</w>
bitter
savan
seeking</w>
fourteen</w>
model</w>
jobs</w>
mus</w>
messages</w>
wiping</w>
courtyard</w>
secretary</w>
reflected</w>
hurts</w>
conference</w>
sweater</w>
finds</w>
miserable</w>
tangled</w>
traced</w>
pel
asha
stretching</w>
routine</w>
grounds</w>
scare</w>
chasing</w>
rocked</w>
cheap</w>
deni
prevent</w>
ousy</w>
leads</w>
mistress</w>
fork</w>
you
questioning</w>
aimed</w>
tity</w>
arse</w>
bilities</w>
thunder</w>
inf
syn
dane</w>
icient</w>
humi
privacy</w>
mors</w>
limp</w>
laws</w>
sole
results</w>
adren
unting</w>
cane</w>
platform</w>
damien</w>
arch
dreaming</w>
refer
bounced</w>
oa
eli</w>
senior</w>
sne
sixty</w>
ni</w>
taller</w>
gau
strate
records</w>
lauren</w>
greg</w>
counted</w>
restra
data</w>
angels</w>
ww
visi
regardless</w>
grasped</w>
aven
realised</w>
long
fail</w>
roads</w>
summ
devon</w>
cycle</w>
attend</w>
interior</w>
union</w>
ranch</w>
magazine</w>
efforts</w>
oliver</w>
luck
described</w>
protecting</w>
earned</w>
crashing</w>
empha
impressive</w>
bomb</w>
mson</w>
maged</w>
xie</w>
mighty</w>
divi
civili
value</w>
ett
charm</w>
sacrif
muffled</w>
bullets</w>
persu
tment</w>
d'
delight</w>
nik
basket</w>
wren
overwhelming</w>
descended</w>
southern</w>
epi
certainty</w>
entry</w>
currently</w>
ain</w>
atlan
alo
superi
indicated</w>
etr
ddling</w>
rene
examined</w>
ragged</w>
clean
smar
telephone</w>
reports</w>
exhaled</w>
toby</w>
liber
bush</w>
smoking</w>
cler
spin</w>
crawl</w>
vege
jill</w>
paper
invitation</w>
email</w>
atory</w>
scratched</w>
anie</w>
wizard</w>
bury</w>
intently</w>
player</w>
bend</w>
engaged</w>
veness</w>
bber</w>
floated</w>
sources</w>
agents</w>
curtain</w>
pic</w>
lifetime</w>
groups</w>
barrel</w>
heel</w>
fail
sser</w>
apple</w>
smells</w>
laurence</w>
glu
scor
color
michel
katherine</w>
whisk
utter</w>
reputation</w>
clan
abor
supply</w>
dley</w>
shove</w>
panting</w>
underground</w>
bat</w>
someday</w>
slamming</w>
aa
triump
nuts</w>
assign
confron
raz
decisions</w>
respec
tattoo</w>
shaft</w>
reasonable</w>
werewolf</w>
dollar</w>
companion</w>
kingdom</w>
stin</w>
youth</w>
rant</w>
vices</w>
species</w>
lieutenant</w>
fication</w>
sual</w>
travis</w>
sack</w>
toler
oak</w>
prisoner</w>
doctors</w>
nic</w>
az
bow
surprising</w>
gossi
recalled</w>
nail</w>
outer</w>
base
nan</w>
creating</w>
commen
handing</w>
defeat</w>
fortunate</w>
limited</w>
josie</w>
motor
options</w>
deliberately</w>
dur
files</w>
flashlight</w>
bore</w>
joy
20</w>
dared</w>
along
rebecca</w>
fears</w>
helmet</w>
necklace</w>
pine</w>
iden
goal</w>
commanded</w>
mbles</w>
hire</w>
fai
fires</w>
elise</w>
velvet</w>
sports</w>
000</w>
stephen</w>
nostri
try
sanc
compani
charming</w>
alongside</w>
tessa</w>
sins</w>
punishment</w>
believing</w>
flip</w>
quality</w>
extra
washington</w>
tossing</w>
accur
gentlemen</w>
thur
nicholas</w>
vagu
waitress</w>
cups</w>
flickered</w>
bourne</w>
comfortably</w>
margar
path
lings</w>
ation
tred</w>
tina</w>
acade
rafe</w>
request
stubborn</w>
rod</w>
automat
prayed</w>
addic
hearts</w>
anton
suici
swim</w>
hatred</w>
dishes</w>
atedly</w>
chica
thouse</w>
une
lender</w>
dragons</w>
deter
spider</w>
jah</w>
describe</w>
heaven
empire</w>
neat
prey</w>
brow
touri
clasped</w>
western</w>
increased</w>
victory</w>
kira</w>
popu
grabs</w>
workers</w>
russian</w>
pretended</w>
mister</w>
talent</w>
clever</w>
samu
shoe</w>
nap
lang
slap</w>
sandwich</w>
kay
walker</w>
.com</w>
rocky</w>
continuing</w>
miracle</w>
adjusted</w>
pipe</w>
gust</w>
curtains</w>
ceremony</w>
chicago</w>
reads</w>
penetr
affected</w>
poison</w>
dusty</w>
dates</w>
bushes</w>
reported</w>
ashe</w>
rison</w>
cooper</w>
dig
juni
hugh</w>
pted</w>
guaran
squeezing</w>
thal</w>
acles</w>
green
popular</w>
phan
seemingly</w>
occasion</w>
aisle</w>
goodness</w>
sacrifice</w>
elder</w>
prayer</w>
ults</w>
cameras</w>
gued</w>
bull</w>
juice</w>
feeding</w>
guided</w>
sang</w>
knob</w>
amazed</w>
fairy</w>
bin</w>
among
adding</w>
buzz
atmo
financi
specific</w>
film</w>
custo
mol
ental</w>
vation</w>
crush</w>
amongst</w>
eager
sinking</w>
embarrassment</w>
seventeen</w>
brightly</w>
scars</w>
humili
worrying</w>
phones</w>
jenks</w>
gur
shelves</w>
savannah</w>
reacher</w>
angrily</w>
slender</w>
unlocked</w>
atop</w>
contempl
adult</w>
absolute</w>
eing</w>
pet
rem
afterward</w>
steam</w>
servation</w>
hits</w>
briti
goddamn</w>
anth
sniffed</w>
exciting</w>
eternity</w>
megan</w>
underwear</w>
pray</w>
rub</w>
monica</w>
in'</w>
british</w>
stefan</w>
protested</w>
cassi
matching</w>
territory</w>
thankfully</w>
nak</w>
locker</w>
intimate</w>
avoided</w>
anch
folding</w>
formal</w>
franti
outfit</w>
cuts</w>
parties</w>
wrinkled</w>
crun
county</w>
roughly</w>
glowed</w>
demanding</w>
joey</w>
collect</w>
betrayed</w>
ruth</w>
title</w>
studi
glaring</w>
mobile</w>
draped</w>
assault</w>
genuine</w>
knot</w>
darker</w>
ryder</w>
thera
stark</w>
fit
squinted</w>
fishing</w>
zack</w>
fade</w>
alia</w>
toilet</w>
tele
slim</w>
inher
pha</w>
avery</w>
vaguely</w>
prints</w>
wha
ynn</w>
electric</w>
beam</w>
fant
blades</w>
matched</w>
jenna</w>
ashamed</w>
15</w>
political</w>
nina</w>
cabinet</w>
mayor</w>
monsters</w>
homes</w>
lighter</w>
barked</w>
technology</w>
typical</w>
grumbled</w>
buying</w>
sunshine</w>
neatly</w>
ggling</w>
tube</w>
sipped</w>
dammit</w>
itive</w>
cushi
shr
rebel
spots</w>
occasional</w>
cottage</w>
pher</w>
railing</w>
nostrils</w>
mat</w>
dge
ankles</w>
lery</w>
oundings</w>
jean</w>
gazing</w>
dread</w>
individual</w>
alled</w>
flared</w>
inhaled</w>
shaky</w>
surroundings</w>
compas
rights</w>
weakness</w>
flooded</w>
adrenaline</w>
ada</w>
pitch</w>
garion</w>
assuming</w>
floors</w>
saman
mar</w>
frantically</w>
sometime</w>
louis</w>
determination</w>
instructed</w>
twitched</w>
hunters</w>
fbi</w>
emplo
comforting</w>
sneak</w>
fantasy</w>
dominic</w>
destruction</w>
media</w>
zoe</w>
suspicion</w>
package</w>
shirts</w>
internet</w>
cross
grac
zzled</w>
stake</w>
corpse</w>
gregor</w>
lew
estim
awar
german</w>
irritated</w>
marched</w>
ii</w>
aggre
ulty</w>
cameron</w>
areas</w>
slightest</w>
noticing</w>
ur</w>
laced</w>
oddly</w>
kies</w>
elegant</w>
dish
shoving</w>
dison</w>
benefit</w>
fading</w>
stripped</w>
subtle</w>
shallow</w>
instinctively</w>
eden</w>
samantha</w>
steering</w>
guardian</w>
numb</w>
tap</w>
shouts</w>
daemon</w>
doll</w>
14</w>
fireplace</w>
vest</w>
diamond</w>
suppor
vig
tful</w>
scape</w>
midst</w>
intend</w>
xon</w>
schi
giggle</w>
catherine</w>
peaceful</w>
fits</w>
slick</w>
jase</w>
visiting</w>
blushed</w>
appointment</w>
abi
remark
status</w>
standard</w>
selfish</w>
ram</w>
approval</w>
eh</w>
eff
arch</w>
helicopter</w>
collected</w>
tations</w>
pierce</w>
key
assure</w>
abs
eps</w>
angled</w>
peering</w>
amelia</w>
purchase</w>
affair</w>
pathetic</w>
ware
samuel</w>
grocer
developed</w>
blankets</w>
realization</w>
soothing</w>
revel
awe</w>
granted</w>
basically</w>
receive</w>
meters</w>
ji
poked</w>
gasping</w>
completed</w>
ques</w>
sealed</w>
sper</w>
smashed</w>
hei
chat</w>
daylight</w>
committed</w>
ounce</w>
summon
steadily</w>
zzie</w>
hop
shre
ele</w>
attor
panicked</w>
sydney</w>
mounted</w>
momentarily</w>
zzle</w>
si</w>
worlds</w>
precisely</w>
arguing</w>
sition</w>
phs</w>
xa
luis</w>
painfully</w>
maneu
temperature</w>
minor</w>
sedu
sandy</w>
mpered</w>
propped</w>
measure</w>
ming
polished</w>
a.</w>
victi
meg</w>
alized</w>
staggered</w>
nett</w>
quo
succe
choices</w>
cities</w>
13</w>
lump</w>
candle</w>
washing</w>
exasper
natalie</w>
firing</w>
thur</w>
gap</w>
deliver</w>
candles</w>
wel</w>
engine
strangers</w>
latter</w>
flush</w>
counting</w>
achers</w>
dozens</w>
baseball</w>
web
sticks</w>
depths</w>
whirled</w>
dumped</w>
vivi
simul
beaten</w>
goti
tanner</w>
guitar</w>
grin
wishes</w>
leaped</w>
influence</w>
era</w>
electr
emper
vacation</w>
aiden</w>
mansion</w>
atmosphere</w>
afri
skill</w>
tiger</w>
wheels</w>
cade</w>
robin</w>
bearing</w>
significant</w>
basic</w>
pitched</w>
phil</w>
sanity</w>
pound</w>
jar</w>
spray</w>
politely</w>
tis
inspir
cass
cain</w>
luckily</w>
odds</w>
musi
spear</w>
troops</w>
rocking</w>
attempting</w>
zone</w>
combination</w>
paced</w>
league</w>
ada
consumed</w>
wis
wasted</w>
blur</w>
epti
legi
elyn</w>
leap</w>
parker</w>
attracted</w>
chuck</w>
skirts</w>
absence</w>
anya</w>
bothering</w>
lowering</w>
argued</w>
serena</w>
nes</w>
beth
advanced</w>
nora</w>
snapping</w>
secu
recovered</w>
uttered</w>
roman</w>
blush</w>
thanked</w>
stit
objec
pol
coughed</w>
jones</w>
views</w>
aries</w>
proph
rin</w>
eyeli
conver
automatically</w>
spon
statue</w>
folk</w>
elding</w>
massa
mour
net
leah</w>
swirling</w>
ckling</w>
eyelids</w>
agne</w>
tug</w>
headache</w>
gritted</w>
frantic</w>
chor
blurted</w>
blocking</w>
kor
hopped</w>
tionless</w>
identity</w>
contain
reception</w>
monitor</w>
fifth</w>
horn</w>
equal</w>
chad</w>
anish</w>
tavi</w>
ghosts</w>
unks</w>
sympathy</w>
judgment</w>
coa
terribly</w>
campus</w>
overwhelmed</w>
clari
destination</w>
ffle</w>
breaks</w>
songs</w>
chains</w>
lana</w>
boston</w>
appe
texas</w>
cheer
encounter</w>
apparent</w>
magn
anytime</w>
channel</w>
gang</w>
wallet</w>
alpha</w>
fridge</w>
ensure</w>
fitting</w>
lingering</w>
bbit</w>
stored</w>
histor
cup
redu
melody</w>
toast</w>
becomes</w>
inity</w>
imagin
ham
sque
lev
muse
bage</w>
victims</w>
sparhawk</w>
absen
violently</w>
bbles</w>
tugging</w>
tance</w>
centre</w>
penny</w>
tatto
mouse</w>
greeting</w>
wandering</w>
18
haunted</w>
mas
dresses</w>
seat
neat</w>
compound</w>
confli
combat</w>
uneasy</w>
horrified</w>
focu
que
a.m.</w>
resist
erection</w>
noises</w>
rhe
roy</w>
zel</w>
ism</w>
affection</w>
bucket</w>
breathless</w>
cure</w>
navy</w>
nonsense</w>
fon
enne</w>
isa</w>
hem</w>
yaw
lifel
ket
ji</w>
survival</w>
yi
electricity</w>
zombie</w>
stily</w>
mares</w>
zero</w>
sided</w>
humanity</w>
jerry</w>
carl</w>
outra
illing</w>
jungle</w>
angie</w>
ralph</w>
pois
dame</w>
sev
crawling</w>
gia</w>
phil
majesty</w>
curiously</w>
despair</w>
disturbed</w>
box
striking</w>
swift</w>
mused</w>
web</w>
throbbing</w>
choo
framed</w>
som</w>
bud
seized</w>
generally</w>
gail</w>
consequences</w>
trailer</w>
disease</w>
shot
champagne</w>
treasure</w>
inven
shado
needle</w>
flinched</w>
braced</w>
stealing</w>
criminal</w>
softened</w>
tox
selling</w>
gene</w>
dling</w>
jeep</w>
muscu
yton</w>
dallas</w>
escort</w>
ffling</w>
mouths</w>
.s.</w>
june</w>
host</w>
grandpa</w>
maintain</w>
tings</w>
mirr
adventure</w>
services</w>
regarded</w>
tum</w>
decl
ticket</w>
barbar
kara</w>
gifts</w>
beck
jai
license</w>
elijah</w>
revol
beings</w>
wei
destiny</w>
twink
distraction</w>
joking</w>
exhi
wood
brac
licking</w>
hurri
defi
anthony</w>
panel</w>
border</w>
emperor</w>
arthur</w>
nov
conversations</w>
accompani
dimen
ram
trous
izzy</w>
effects</w>
deserted</w>
dium</w>
print</w>
urged</w>
treatment</w>
skinny</w>
inting</w>
accompanied</w>
envir
convic
rac
failure</w>
pour</w>
unique</w>
lunged</w>
sweeping</w>
magnific
rot</w>
pacing</w>
treating</w>
jar
downtown</w>
xture</w>
gravel</w>
curl</w>
rusty</w>
sprang</w>
elabor
annoying</w>
illness</w>
hauled</w>
wealth</w>
outw
pron
desperation</w>
toss</w>
twit
inese</w>
squad</w>
teenth</w>
lip
wary</w>
rum
regarding</w>
clients</w>
zzed</w>
drifting</w>
immortal</w>
barrier</w>
neighbors</w>
hovering</w>
rand
annoy
valuable</w>
locking</w>
dizzy</w>
suitcase</w>
anor</w>
indepen
tempted</w>
notebook</w>
corn</w>
discussed</w>
dresser</w>
strands</w>
surge</w>
soup</w>
casting</w>
stalked</w>
gradually</w>
rumors</w>
nick
italian</w>
customers</w>
reminding</w>
finishing</w>
chinese</w>
clapped</w>
croo
speaks</w>
divorce</w>
possession</w>
scale</w>
disappearing</w>
aim</w>
numer
surve
madel
instincts</w>
fluttered</w>
ctor</w>
glory</w>
read
carlos</w>
hesitate</w>
noble</w>
scratch</w>
stabbed</w>
sob</w>
....
muscular</w>
posure</w>
negoti
compet
engag
worries</w>
erupted</w>
withdrew</w>
medicine</w>
illa</w>
topic</w>
pest</w>
ids</w>
rex</w>
explaining</w>
longing</w>
apology</w>
wink</w>
helps</w>
nightmares</w>
thrilled</w>
steven</w>
margaret</w>
syst
fen
boats</w>
crimson</w>
tacti
sket
acqua
volume</w>
displa
creek</w>
powder</w>
owed</w>
nette</w>
invite</w>
eron</w>
ashley</w>
weary</w>
dity</w>
philo
lingered</w>
drift</w>
daw
burns</w>
article</w>
belo
concentrated</w>
healed</w>
lance</w>
vehicles</w>
packing</w>
bills</w>
suv</w>
guarded</w>
capture</w>
suggestion</w>
disor
sleeves</w>
waiter</w>
isabella</w>
tapping</w>
junior</w>
permanent</w>
50</w>
dove</w>
rein
landscape</w>
scur
piercing</w>
iley</w>
thoroughly</w>
demonstr
tune</w>
saint</w>
willow</w>
boul
assho
cats</w>
intelligent</w>
watch
wider</w>
uses</w>
environ
perform
meless</w>
remarked</w>
atri
mrs</w>
counter
fragi
gossip</w>
ctive</w>
seal</w>
cam</w>
jasmine</w>
soap</w>
construction</w>
launched</w>
mpy</w>
hugging</w>
fragile</w>
pole</w>
personality</w>
teaching</w>
stically</w>
nell</w>
jude</w>
isol
body
graham</w>
pearl</w>
egg</w>
pies</w>
guessing</w>
rand</w>
gene
suicide</w>
lazy</w>
testing</w>
cells</w>
yu
cool
differently</w>
average</w>
minister</w>
acciden
sies</w>
winning</w>
fuel</w>
seeming</w>
sep
kable</w>
exited</w>
pleaded</w>
arrested</w>
hem
rail</w>
pec
peeked</w>
blouse</w>
ony
temporary</w>
curling</w>
eria</w>
torso</w>
ribb
recover</w>
eleanor</w>
thumbs</w>
introduce</w>
pursu
leon</w>
circling</w>
ore
ells</w>
ased</w>
rabbit</w>
portion</w>
sim
witnessed</w>
represen
bling</w>
ruby</w>
deer</w>
nudged</w>
dson</w>
lick</w>
commo
sweep</w>
corrected</w>
tives</w>
sco</w>
enna</w>
vague</w>
infin
chewed</w>
vom
bending</w>
mitri</w>
larry</w>
warehouse</w>
prime</w>
lashes</w>
michelle</w>
expert</w>
gleaming</w>
gna
forearm</w>
salu
maker</w>
eth</w>
ana
inju
troubled</w>
lene</w>
xim
cue</w>
pavement</w>
grins</w>
never
damaged</w>
generous</w>
impatient</w>
mount</w>
rational</w>
conclusion</w>
soil</w>
con</w>
callie</w>
taxi</w>
clit</w>
storage</w>
hovered</w>
stride</w>
wisdom</w>
warmed</w>
financial</w>
mos</w>
require</w>
aboard</w>
wayne</w>
draw
adin</w>
smoothly</w>
tumbled</w>
fast
layer</w>
av
dna</w>
pushes</w>
mock</w>
charges</w>
handled</w>
cover
wen
oppon
lewis</w>
scanning</w>
shudder</w>
dear
ssen
develop
curb</w>
fox</w>
foul</w>
robot</w>
derson</w>
zeke</w>
holden</w>
linda</w>
freezing</w>
socks</w>
10
pillows</w>
set
initial</w>
judging</w>
inely</w>
piled</w>
commented</w>
farm
prisoners</w>
femin
ria</w>
paint
exercise</w>
shotgun</w>
buck</w>
impatiently</w>
reporter</w>
congrat
ories</w>
decorated</w>
drun
backing</w>
eva
congratul
quest</w>
nels</w>
lement</w>
tire
citizens</w>
agit
tools</w>
sian</w>
dealt</w>
addition</w>
sorrow</w>
refri
nut</w>
icial</w>
arrest</w>
patiently</w>
monit
lining</w>
plunged</w>
whiskey</w>
explode</w>
population</w>
fiona</w>
declan</w>
chant</w>
sighs</w>
hastily</w>
disaster</w>
yo</w>
decades</w>
perry</w>
newly</w>
north
ut</w>
della</w>
mistakes</w>
hide
og
madness</w>
description</w>
facility</w>
cian</w>
chip</w>
dispo
dee
awak
touches</w>
slice</w>
log</w>
gal</w>
eler
refriger
bug</w>
beloved</w>
acqu
hardened</w>
retreat</w>
itute</w>
janet</w>
consul
vegas</w>
slam</w>
imagining</w>
disagre
passion
supper</w>
acceler
regard</w>
knives</w>
meanwhile</w>
bands</w>
stall</w>
bouncing</w>
concentration</w>
iced</w>
enthusiasm</w>
bucks</w>
sliced</w>
ripping</w>
leaders</w>
praying</w>
misery</w>
twir
saddle</w>
mation</w>
past
distract</w>
breath
studio</w>
costu
speaker</w>
jeff
contain</w>
bang</w>
profile</w>
west
tick</w>
shuffled</w>
fare</w>
omi</w>
chamb
gloo
positioned</w>
assignment</w>
intimid
depu
ige</w>
macy</w>
smoothed</w>
langdon</w>
buzz</w>
saw
dors</w>
thoughtfully</w>
earth
replies</w>
admi
intentions</w>
france</w>
roots</w>
assigned</w>
awareness</w>
crease</w>
zo</w>
beds</w>
drama</w>
extreme</w>
roses</w>
pig</w>
museum</w>
register</w>
attorney</w>
christop
uncertain</w>
piss</w>
kit</w>
tip
awkwardly</w>
aly</w>
burden</w>
room
refusing</w>
clinging</w>
celest
zombies</w>
toy</w>
taneously</w>
cate</w>
awhile</w>
lessons</w>
thoughtful</w>
fs</w>
omin
cord</w>
......</w>
lasted</w>
coin</w>
ssively</w>
cherry</w>
teria</w>
hal</w>
garbage</w>
becky</w>
rattled</w>
sunglasses</w>
lis</w>
trousers</w>
deciding</w>
miller</w>
rom
levels</w>
tues
jealousy</w>
butter</w>
strolled</w>
cuffs</w>
assassin</w>
awoke</w>
madame</w>
confin
cakes</w>
indul
iest</w>
cargo</w>
sca</w>
olas</w>
xavier</w>
tooth
casey</w>
tests</w>
whip</w>
clerk</w>
sations</w>
inevitable</w>
vik
heck</w>
lion
governor</w>
tine</w>
spilling</w>
darius</w>
lifts</w>
harper</w>
c.</w>
surrender</w>
winding</w>
visitors</w>
injuries</w>
griffin</w>
resistance</w>
joan</w>
sofia</w>
colli
whore</w>
swirled</w>
recru
word
stove</w>
perched</w>
brains</w>
attempts</w>
all
passes</w>
herd</w>
tland</w>
bewil
analy
reed</w>
melanie</w>
marco</w>
jen</w>
ambul
fantastic</w>
rigid</w>
che</w>
tiff
inclined</w>
loyal</w>
math</w>
shivering</w>
discussing</w>
var</w>
canv
seventy</w>
apri
paperwork</w>
slope</w>
reminder</w>
maxi
knights</w>
diana</w>
dismissed</w>
trey</w>
shades</w>
fashioned</w>
lara</w>
sincer
appreciated</w>
bold</w>
theater</w>
millions</w>
ots</w>
gravity</w>
cans</w>
allison</w>
rober
lizzie</w>
maddie</w>
wedne
northern</w>
kan
spanish</w>
urgent</w>
hatch</w>
duck</w>
devo
gery</w>
marshall</w>
creepy</w>
connect</w>
overcome</w>
machines</w>
ille</w>
mono
crumpled</w>
condu
rats</w>
kinda</w>
superior</w>
teddy</w>
ambulance</w>
china</w>
spike</w>
senator</w>
foyer</w>
sworn</w>
rh
altogether</w>
zzling</w>
logic</w>
ware</w>
portal</w>
conspir
clamped</w>
thorne</w>
performance</w>
warren</w>
exhaustion</w>
factory</w>
edged</w>
artist</w>
thud</w>
bark</w>
mortals</w>
journal</w>
frightening</w>
prou
ettes</w>
aura</w>
dex</w>
annoyance</w>
europe</w>
ember</w>
dangling</w>
heaved</w>
communication</w>
autu
promises</w>
perfu
pony
berg</w>
sparkling</w>
sparks</w>
cancer</w>
asp
pleading</w>
micah</w>
shi</w>
moni
econ
additional</w>
haze</w>
inqui
trailing</w>
tti
complained</w>
strings</w>
insurance</w>
blows</w>
menu</w>
jewelry</w>
messed</w>
clary</w>
online</w>
kneeling</w>
eyeing</w>
bubble</w>
dramatic</w>
pru
raged</w>
rack</w>
session</w>
insides</w>
smacked</w>
exag
eagerly</w>
derness</w>
albert</w>
oxy
ggle</w>
pinched</w>
novel</w>
tus</w>
roof
comments</w>
inse
reci
mately</w>
parent</w>
mischi
franc
lounge</w>
apol
safer</w>
neighbor</w>
admini
depar
bruises</w>
sighing</w>
cassandra</w>
alu
spark</w>
rubber</w>
pills</w>
carol</w>
scowl</w>
ebook</w>
shops</w>
bald</w>
misty</w>
distinct</w>
ida</w>
accused</w>
huddled</w>
doug</w>
sweaty</w>
preston</w>
loyalty</w>
esa</w>
resen
ament</w>
retreated</w>
mixture</w>
deaths</w>
cookies</w>
echoing</w>
carson</w>
ray
kendra</w>
tiffany</w>
dashed</w>
func
greet</w>
thankful</w>
whoa</w>
cavern</w>
yal</w>
requi
mechan
perform</w>
tales</w>
'cause</w>
terrifying</w>
limits</w>
cha</w>
tend</w>
arriving</w>
clai
arrogant</w>
bartender</w>
torch</w>
beats</w>
lanter
moist</w>
eot
shorter</w>
education</w>
bon</w>
interf
fever</w>
delim</w>
religious</w>
eotdelim</w>
types</w>
tuesday</w>
unbeliev
mire</w>
banks</w>
morti
flood</w>
symbol</w>
shapes</w>
chem
shrugs</w>
curves</w>
reserved</w>
injury</w>
aci
systems</w>
bolted</w>
tack
gaining</w>
chips</w>
virgin</w>
discom
spoon</w>
dial</w>
embarrassing</w>
reacted</w>
lissa</w>
contemp
apprehen
fically</w>
autumn</w>
flicker</w>
jade</w>
resolve</w>
vie</w>
attraction</w>
tended</w>
senti
scarlet</w>
faintly</w>
sures</w>
evol
notion</w>
uri
mack
cares</w>
scan</w>
disappro
demo
immen
luc</w>
spill</w>
vicious</w>
folds</w>
innoc
sobbing</w>
straw</w>
removing</w>
yson</w>
companions</w>
beasts</w>
dana</w>
hh</w>
ancest
sale</w>
partially</w>
combined</w>
feder
eastern</w>
photograph</w>
internal</w>
registered</w>
teenager</w>
blackness</w>
tease</w>
tracy</w>
ician</w>
tag</w>
ela</w>
wheel
thin'</w>
district</w>
claw</w>
watches</w>
unlikely</w>
stuart</w>
acity</w>
seep
loading</w>
papa</w>
irritation</w>
stephan
attacks</w>
unpleasant</w>
arrange</w>
courte
wednesday</w>
mall</w>
veyed</w>
ponytail</w>
mack</w>
function</w>
disci
multiple</w>
ites</w>
jab
choking</w>
wels</w>
blazing</w>
proceeded</w>
releasing</w>
activities</w>
strap</w>
cowboy</w>
exclu
applau
lea</w>
dome</w>
tali
secured</w>
pencil</w>
meetings</w>
portra
coincidence</w>
officially</w>
visions</w>
ancing</w>
temples</w>
refrigerator</w>
alist</w>
longed</w>
outs</w>
yl</w>
tortured</w>
rapid</w>
produce</w>
fiercely</w>
ez
sunny</w>
skim
cody</w>
dread
swell</w>
sman</w>
positions</w>
doubts</w>
shaken</w>
patri
exagger
players</w>
magnificent</w>
crushing</w>
insult</w>
psychic</w>
reluctant</w>
thursday</w>
stung</w>
sunset</w>
romance</w>
parano
viewed</w>
sweating</w>
laundry</w>
hyster
linked</w>
chess</w>
stray</w>
jonas</w>
gil</w>
dia
corn
pecu
focusing</w>
freeze</w>
streaming</w>
mouthed</w>
downward</w>
delighted</w>
crisp</w>
dary</w>
control
dash</w>
slaves</w>
ecst
variety</w>
shrieked</w>
april</w>
provo
hum</w>
strapped</w>
tracking</w>
labor
claims</w>
tent
spects</w>
illegal</w>
dedic
indian</w>
fiery</w>
tics</w>
inviting</w>
strain</w>
stin
specul
thread</w>
ssel</w>
meaning
brooke</w>
cracking</w>
way
forgetting</w>
eighty</w>
thra
bidden</w>
whitney</w>
erly</w>
accustom
whistle</w>
rols</w>
att</w>
bonnie</w>
philip</w>
acker</w>
tide</w>
dwarf</w>
slung</w>
score</w>
santa</w>
vo</w>
objects</w>
else
accustomed</w>
evidently</w>
ceme
tucker</w>
temer
helpful</w>
mech
arrows</w>
sly</w>
oblivious</w>
granny</w>
demands</w>
flickering</w>
fee
france
offended</w>
swo
pples</w>
grav
oldest</w>
agency</w>
adults</w>
largest</w>
unts</w>
duties</w>
clad</w>
transp
swayed</w>
greek</w>
explore</w>
transport</w>
skipped</w>
passa
axe</w>
altar</w>
pond</w>
mont</w>
joel</w>
august</w>
bot</w>
surged</w>
kur
--------
spective</w>
aler
scenari
hart</w>
charity</w>
crooked</w>
bruised</w>
picks</w>
genuinely</w>
class
disturbing</w>
mother
fuck
dream
vince</w>
ui
stunning</w>
basis</w>
donna</w>
difficulty</w>
caution</w>
cara</w>
cies</w>
smash
thump</w>
madison</w>
incredul
saun
proudly</w>
brutal</w>
festi
dous</w>
shifter</w>
quir
fighter</w>
snick
slides</w>
delu
cursing</w>
acefully</w>
tires</w>
fiction</w>
elderly</w>
stein</w>
degrees</w>
frost</w>
offices</w>
item</w>
bris</w>
policem
hunched</w>
justi
colm</w>
pardon</w>
virus</w>
denied</w>
motionless</w>
pierced</w>
tality</w>
fin</w>
tightening</w>
motel</w>
elded</w>
cass</w>
avenue</w>
tangle</w>
ropes</w>
afterwards</w>
caressed</w>
tones</w>
tunnels</w>
filthy</w>
hay
examine</w>
elaborate</w>
writer</w>
rounds</w>
nap</w>
accepting</w>
acknowledge</w>
root</w>
anced</w>
capital</w>
pregnancy</w>
naomi</w>
auto
messy</w>
nik</w>
solit
melt</w>
guts</w>
employees</w>
semi</w>
identify</w>
talks</w>
bumped</w>
jagged</w>
challeng
fresh
foster</w>
daughters</w>
repeatedly</w>
mur</w>
concerns</w>
cheer</w>
asshole</w>
stephanie</w>
lus</w>
eil</w>
tuary</w>
assistance</w>
constru
starving</w>
returns</w>
pausing</w>
bethany</w>
carrie</w>
fat
phillip</w>
bey</w>
malcolm</w>
vice</w>
importance</w>
pairs</w>
pre</w>
stain</w>
unaware</w>
spur
prize</w>
winds</w>
unhappy</w>
highest</w>
canvas</w>
stir</w>
steep</w>
numerous</w>
metal
temeraire</w>
tex</w>
jules</w>
elsewhere</w>
dians</w>
mommy</w>
strongly</w>
jection</w>
advance</w>
dorian</w>
dimitri</w>
zach
tz</w>
dialed</w>
~~
theless</w>
razor</w>
christopher</w>
technically</w>
oblig
battle
retrieved</w>
attacking</w>
absently</w>
hector</w>
merry</w>
scooped</w>
phrase</w>
nevertheless</w>
defeated</w>
countless</w>
replace</w>
negative</w>
mption</w>
troy</w>
bracel
barre
ap
16</w>
dono
dryly</w>
patrol</w>
p.m.</w>
sour</w>
chewing</w>
lurched</w>
confid
tural</w>
suited</w>
quet</w>
absorbed</w>
bruce</w>
flipping</w>
bishop</w>
maya</w>
leon
retrieve</w>
fling</w>
possibilities</w>
bites</w>
zipped</w>
alike</w>
addressed</w>
woken</w>
resources</w>
fond</w>
delay</w>
freely</w>
backyard</w>
salad</w>
magnus</w>
obsc
leak</w>
gyp
aliens</w>
paths</w>
sers</w>
donald</w>
cyn
willingly</w>
xy</w>
ball
patients</w>
austin</w>
napkin</w>
bible</w>
murphy</w>
eless
void</w>
jag
sacred</w>
furiously</w>
dead
pleasan
paintings</w>
sasha</w>
lodge</w>
vic</w>
vessel</w>
ninety</w>
chel
keen</w>
savage</w>
furrowed</w>
cemetery</w>
smelling</w>
preven
giggling</w>
ellen</w>
sleepy</w>
disco
claiming</w>
defensive</w>
stores</w>
blasted</w>
south
tested</w>
mbly</w>
script</w>
arian</w>
rogue</w>
practical</w>
bizar
prop
eline</w>
timing</w>
ritual</w>
ppling</w>
buzzing</w>
ize</w>
flashes</w>
effective</w>
delivery</w>
linger</w>
leigh</w>
kings</w>
culture</w>
cracks</w>
attended</w>
sobs</w>
cautious</w>
summoned</w>
prospect</w>
restless</w>
index</w>
fascinated</w>
column</w>
reassuring</w>
upside</w>
illusion</w>
allie</w>
tons</w>
sticky</w>
encountered</w>
werewolves</w>
interrog
cable</w>
beamed</w>
applied</w>
partly</w>
battered</w>
frankly</w>
feathers</w>
wander</w>
sensing</w>
metho
oxygen</w>
growth</w>
studies</w>
sily</w>
drey</w>
depre
barri
promising</w>
blinding</w>
genius</w>
feminine</w>
contrac
cooked</w>
referring</w>
eur</w>
lovers</w>
drum</w>
rann</w>
bedside</w>
raises</w>
affect</w>
sprawled</w>
pauses</w>
punc
icia</w>
felix</w>
smug</w>
coal</w>
sensual</w>
earn</w>
diner</w>
characters</w>
stumbling</w>
octo
silky</w>
persua
expressions</w>
swallowing</w>
smen</w>
wealthy</w>
myr
nephe
liking</w>
tegr
hit
harm
stab</w>
j.</w>
sacri
blos
fleet</w>
bubb
bacon</w>
glorious</w>
fans</w>
purchased</w>
flick</w>
identical</w>
correctly</w>
teachers</w>
secretly</w>
rumbled</w>
diag
convincing</w>
passengers</w>
alexandra</w>
dise</w>
welcom
swam</w>
calmed</w>
tribe</w>
joint</w>
rik</w>
campa
eived</w>
leen</w>
jackie</w>
gee
nard</w>
specifically</w>
hiss</w>
fountain</w>
vote</w>
necessarily</w>
meantime</w>
engines</w>
sheep</w>
disin
discovery</w>
moo
audrey</w>
requested</w>
grunt</w>
exception</w>
absur
kindly</w>
stacked</w>
consciously</w>
gulped</w>
sail</w>
sucks</w>
originally</w>
eliza</w>
meth
debris</w>
admired</w>
interpre
acknowledged</w>
tia</w>
abandon</w>
lincol
ledge</w>
catches</w>
gular</w>
cheek
recep
blessed</w>
humming</w>
gible</w>
17</w>
stressed</w>
retired</w>
horse
gay</w>
console</w>
creeping</w>
anni
angui
roaring</w>
puppy</w>
amazement</w>
piano</w>
heavens</w>
phoen
heap</w>
choosing</w>
dess
goods</w>
depends</w>
lena</w>
scope</w>
aden</w>
unfamiliar</w>
sam
cow</w>
mistaken</w>
msy</w>
trucks</w>
burnt</w>
pursed</w>
fumbled</w>
francesca</w>
dwel
celebrate</w>
mexico</w>
ligh
welcomed</w>
disgusting</w>
raging</w>
nineteen</w>
bumps</w>
venge
gratitude</w>
rung</w>
reminds</w>
brass</w>
ak
goose</w>
devast
adjust</w>
relationships</w>
elo
concluded</w>
relatively</w>
quin
resisted</w>
hut</w>
ula</w>
outstretched</w>
meals</w>
happier</w>
theirs</w>
moist
infected</w>
drowned</w>
stirring</w>
collapse</w>
stella</w>
claude</w>
concept</w>
accommo
rock
disgusted</w>
clipped</w>
callum</w>
motions</w>
fae</w>
asher</w>
organization</w>
caress</w>
accidentally</w>
resumed</w>
backseat</w>
sorted</w>
brighter</w>
betrayal</w>
mascul
grimly</w>
pictured</w>
cassidy</w>
opti
recogn
closes</w>
stormed</w>
luce</w>
d.</w>
buzzed</w>
sawyer</w>
flag</w>
apologe
fluid</w>
exqui
trau
sanctuary</w>
rim</w>
plays</w>
compliment</w>
frag
computers</w>
wasting</w>
logist</w>
threats</w>
force
recognition</w>
tremble</w>
sunk</w>
industri
commerci
thie
displayed</w>
undead</w>
creation</w>
blurred</w>
one
documents</w>
dazed</w>
unfortunate</w>
glittering</w>
dalton</w>
shutting</w>
severe</w>
lincoln</w>
gallery</w>
confirm</w>
murderer</w>
discre
aircraft</w>
elly</w>
religion</w>
vors</w>
spells</w>
donovan</w>
contribu
robes</w>
u.s.</w>
burg</w>
valerie</w>
lilly</w>
retor
arrangements</w>
obey</w>
gaping</w>
fitted</w>
beams</w>
lee
stock
wrath</w>
hopeful</w>
resort</w>
viewing</w>
pumping</w>
complain</w>
suspiciously</w>
conditions</w>
jokes</w>
abra
lecture</w>
peeled</w>
convenient</w>
journ
trusting</w>
rad</w>
loop</w>
elliot</w>
zar</w>
tech</w>
drain</w>
scout</w>
illuminated</w>
arrangement</w>
ax</w>
insist
express</w>
prior</w>
iring</w>
eerie</w>
teenage</w>
kellan</w>
determine</w>
weakly</w>
competition</w>
virgin
luxury</w>
gardens</w>
tissue</w>
chemi
ares</w>
aur
joked</w>
guarantee</w>
rhys</w>
legend</w>
succeeded</w>
bizarre</w>
environment</w>
skip</w>
hop</w>
follows</w>
repair</w>
antonio</w>
noneth
nonetheless</w>
keith</w>
stilled</w>
depth</w>
coordin
sened</w>
academy</w>
stics</w>
scarf</w>
inser
gaw
princip
entertain
thrill</w>
18</w>
viously</w>
ceased</w>
surgery</w>
prompted</w>
lawyers</w>
scraped</w>
photographs</w>
include</w>
piper</w>
network</w>
leagues</w>
comprehen
tricks</w>
strand</w>
stomped</w>
counsel
nancy</w>
mature</w>
fetch</w>
visitor</w>
relaxing</w>
mild</w>
fulness</w>
confessed</w>
cora</w>
shep
darcy</w>
vial</w>
explains</w>
encouraged</w>
drowning</w>
chuckles</w>
rays</w>
dive</w>
appearing</w>
scheduled</w>
elf</w>
wes</w>
levi</w>
halls</w>
rang
shea
mini</w>
ultimate</w>
cringed</w>
elimin
mitch
mblance</w>
prophec
monk</w>
escorted</w>
patio</w>
eving</w>
sooth
oly
ane
perfection</w>
bastar
politics</w>
fingernails</w>
salv
ddles</w>
chann
tails</w>
halted</w>
essence</w>
daring</w>
marine</w>
development</w>
isabel</w>
believes</w>
puzzle</w>
sweetie</w>
perfume</w>
generation</w>
stays</w>
crai
weighed</w>
strokes</w>
limit</w>
indicating</w>
indign
let
murmur</w>
bells</w>
dennis</w>
discomfort</w>
minded</w>
stur
examining</w>
circular</w>
sarcasm</w>
launch</w>
homework</w>
plain
pu</w>
locate</w>
elem
innocence</w>
swaying</w>
chest
walter</w>
tripped</w>
coins</w>
hoarse</w>
straining</w>
remarkable</w>
mored</w>
isabelle</w>
stench</w>
escaping</w>
lett</w>
failing</w>
seduc
accurate</w>
husky</w>
dense</w>
arousal</w>
transl
brady</w>
tracked</w>
cough</w>
debt</w>
muttering</w>
seed</w>
terry</w>
dism
patterns</w>
jan</w>
respected</w>
opponent</w>
desired</w>
harbor</w>
gin</w>
bee</w>
marina</w>
mma</w>
poking</w>
prim
sque</w>
nicely</w>
lling</w>
suf
phoenix</w>
native</w>
july</w>
hazel</w>
ghtness</w>
distress</w>
xter</w>
peculiar</w>
whil
calcul
grocery</w>
bump</w>
phic</w>
civil</w>
females</w>
johnson</w>
waist
receiver</w>
possess</w>
tool</w>
offers</w>
scoffed</w>
pupp
raphael</w>
eternal</w>
thief</w>
deputy</w>
particip
strategy</w>
offense</w>
medit
angela</w>
nikki</w>
aked</w>
wax</w>
fati
whilst</w>
reward</w>
operate</w>
headlights</w>
soda</w>
plot</w>
hairs</w>
picnic</w>
listed</w>
itions</w>
andrea</w>
abigail</w>
theo</w>
melting</w>
paja
lity</w>
organized</w>
metallic</w>
gesturing</w>
franci
florida</w>
gabrielle</w>
international</w>
titude</w>
bum</w>
boom</w>
tail
sneaking</w>
mothers</w>
kindness</w>
acon</w>
uncomfortably</w>
atively</w>
pierre</w>
power
rumble</w>
popping</w>
concealed</w>
printed</w>
intrigued</w>
briefcase</w>
tice</w>
strous</w>
honey
ging
cran
colour</w>
venti
pained</w>
engagement</w>
nash</w>
coats</w>
alities</w>
administr
thias</w>
sacrific
luther</w>
jury</w>
adds</w>
cob
coward</w>
automatic</w>
lu</w>
divine</w>
nadia</w>
iv
yells</w>
soli
shifts</w>
hant</w>
rose
excitedly</w>
ions</w>
shifters</w>
aging</w>
abe</w>
peek</w>
howard</w>
cellar</w>
receiving</w>
host
vimes</w>
simultaneously</w>
insist</w>
demean
suppre
rug</w>
diego</w>
rho
momma</w>
classroom</w>
wives</w>
traditional</w>
proven</w>
nin
enced</w>
conscience</w>
butler</w>
scratching</w>
implic
kitten</w>
anticipated</w>
sorcer
established</w>
worker</w>
hates</w>
itch</w>
forgi
audible</w>
clarity</w>
unison</w>
hot
vile
kenne
cheerful</w>
rank</w>
propo
enda</w>
raine</w>
must
moaning</w>
0s</w>
sober</w>
coughing</w>
ee</w>
intact</w>
dripped</w>
athle
motorcycle</w>
euro
cousins</w>
challenged</w>
buff
stair</w>
ili
anxiously</w>
mode</w>
enzie</w>
emerald</w>
americans</w>
eting</w>
evident</w>
fucked</w>
mitchell</w>
lydia</w>
practiced</w>
overnight</w>
bud</w>
bastards</w>
.a.</w>
twenti
promptly</w>
overly</w>
mont
honesty</w>
ians</w>
slowing</w>
ay
toys</w>
ascen
silhou
beat
ush
jaws</w>
golf</w>
appeal</w>
wreck</w>
contrast</w>
lush</w>
wee</w>
pod</w>
anderson</w>
valent
cafe
accomplished</w>
mandy</w>
investigate</w>
presses</w>
grinding</w>
domen</w>
zi</w>
eo</w>
gee</w>
splashed</w>
inges</w>
ghtful</w>
restri
muddy</w>
mies</w>
headquarters</w>
peer</w>
25</w>
carolyn</w>
marrying</w>
banged</w>
gel</w>
bee
vivid</w>
mali
24</w>
layers</w>
valentine</w>
elders</w>
shadow
mour</w>
reid</w>
powered</w>
grea
clinic</w>
thresho
folder</w>
rory</w>
dump</w>
apollo</w>
majority</w>
japan
arming</w>
cigarettes</w>
chick</w>
scientists</w>
choke</w>
arity</w>
goin'</w>
unseen</w>
labor</w>
lone</w>
privile
pier</w>
barry</w>
acceptable</w>
inspector</w>
22</w>
mick</w>
performed</w>
ballo
ivan</w>
occasions</w>
twitch</w>
lucian</w>
jerking</w>
japanese</w>
therapy</w>
mill</w>
chatting</w>
ups</w>
precise</w>
mainly</w>
relent
poo
beck</w>
regretted</w>
suspended</w>
episo
rau
lynn</w>
graceful</w>
admire</w>
tad</w>
fights</w>
adri
pub</w>
adverti
outline</w>
magne
revolu
hyp
padded</w>
hypo
evie</w>
town
sum</w>
quali
overheard</w>
gasps</w>
dedly</w>
mina</w>
kidnapped</w>
ulted</w>
philoso
discar
veil</w>
sandwich
olive</w>
crow</w>
impro
c'
leaf</w>
reapp
frequently</w>
messen
threshold</w>
gaped</w>
ett</w>
dice</w>
bryn
urgency</w>
pm</w>
enhan
ves
founded</w>
ures</w>
lind
tickets</w>
slit</w>
smack</w>
tying</w>
obedi
ase</w>
messenger</w>
minent</w>
lords</w>
nurses</w>
character
principal</w>
cooler</w>
bundle</w>
taut</w>
previously</w>
rus</w>
enjoy
critical</w>
plague</w>
copper</w>
plucked</w>
kenny</w>
craig</w>
vali
electronic</w>
virginia</w>
towers</w>
slan
lins</w>
motor</w>
terminal</w>
maze</w>
lessness</w>
sleek</w>
interrupt</w>
lucan</w>
descent</w>
coke</w>
appet
alize</w>
huffed</w>
maddy</w>
hero
partners</w>
rises</w>
mae</w>
bliss</w>
balanced</w>
windshield</w>
accounts</w>
warily</w>
selected</w>
ree
manners</w>
forbidden</w>
compassion</w>
fau
buckled</w>
tighten</w>
fairs</w>
jolt</w>
hunted</w>
clenching</w>
wren</w>
experiment</w>
discipl
hl</w>
witnesses</w>
glove</w>
sheepi
layla</w>
calvin</w>
trips</w>
ino</w>
seattle</w>
startling</w>
tec
grasping</w>
veron
swit
nanny</w>
calcu
:00</w>
feast</w>
authorities</w>
conqu
freed</w>
sweetly</w>
transfer</w>
thrusting</w>
pickup</w>
winston</w>
moral</w>
lattered</w>
foundation</w>
tourists</w>
nin</w>
marsha
essa</w>
drunken</w>
sipping</w>
exposing</w>
engul
inquired</w>
techni
veling</w>
crowds</w>
unbear
throws</w>
dwell</w>
slapping</w>
teams</w>
element</w>
.c.</w>
increase</w>
chester</w>
scientist</w>
jonah</w>
burea
stures</w>
river
growling</w>
ramp</w>
neared</w>
perspective</w>
fix
nan
gobl
sufficient</w>
sail
belongs</w>
unmista
increasing</w>
troll</w>
lacey</w>
visibly</w>
dessert</w>
stes</w>
entertainment</w>
relev
stati
cere</w>
hilt</w>
oma</w>
loosened</w>
retorted</w>
maintained</w>
packs</w>
extraordinary</w>
embraced</w>
oon</w>
communicate</w>
scol
desig
surveyed</w>
cradled</w>
reins</w>
peak</w>
stel
dine</w>
ruins</w>
relative</w>
indication</w>
respect
cafeteria</w>
wil</w>
dela
vest
quil
banging</w>
supernatural</w>
departure</w>
lifeless</w>
extent</w>
successfully</w>
production</w>
ci</w>
gregory</w>
sar</w>
flare</w>
wick
irish</w>
flee</w>
sincere</w>
residence</w>
kerchief</w>
iron
filed</w>
employee</w>
patr
interests</w>
condom</w>
posture</w>
reference</w>
ronan</w>
hill
ditch</w>
thea</w>
warming</w>
bellowed</w>
limo</w>
goat</w>
enfor
basket
destroying</w>
drawers</w>
diamonds</w>
dingly</w>
passionate</w>
lugg
vain</w>
copy
nephew</w>
gies</w>
tattoos</w>
steaming</w>
sedly</w>
iser</w>
float</w>
davis</w>
colorful</w>
zeus</w>
sixth</w>
ricky</w>
reu
chambers</w>
regain</w>
cit
ashes</w>
apr
francisco</w>
darren</w>
walk
earning</w>
breed</w>
advised</w>
luggage</w>
playfully</w>
nath
lette</w>
erik</w>
yawned</w>
thorn</w>
needles</w>
lamps</w>
agging</w>
tasting</w>
protru
welcoming</w>
transformed</w>
lef
tsy</w>
cafe</w>
instance</w>
gallo
mesm
tracing</w>
obs</w>
bedro
poe
tennis</w>
wool</w>
bass</w>
straps</w>
responding</w>
marty</w>
rece
omy</w>
candi
sauce</w>
stac
casin
gos</w>
openly</w>
masters</w>
nolan</w>
freaked</w>
cruci
controlla
proceed</w>
planes</w>
fascinating</w>
cara
dall</w>
coffin</w>
proto
drives</w>
deepened</w>
bust</w>
atives</w>
streaked</w>
masculine</w>
iner</w>
dren
emotionally</w>
fing</w>
situations</w>
madeline</w>
refre
doubled</w>
disting
perimeter</w>
freshly</w>
opy</w>
zards</w>
eagle</w>
selena</w>
nightstand</w>
lame</w>
squat
legen
kaladin</w>
unlea
skye</w>
shimmering</w>
heaving</w>
haul</w>
hurriedly</w>
fortress</w>
excep
deserves</w>
cattle</w>
pulsed</w>
pulsing</w>
baby
wyatt</w>
droo
campaign</w>
customer</w>
bargain</w>
thirsty</w>
sterling</w>
pirate</w>
mikha
imperi
october</w>
flinch</w>
ami</w>
sickness</w>
gerald</w>
bani
max
container</w>
occup
doms</w>
ich</w>
remn
divided</w>
horns</w>
potat
rag</w>
aroused</w>
tabi
whimpered</w>
vines</w>
disguise</w>
region</w>
local
guardians</w>
sors</w>
ini</w>
drums</w>
congratulations</w>
lethal</w>
creep</w>
succeed</w>
squealed</w>
lish
terror
rina</w>
curly</w>
shaw</w>
potatoes</w>
verge</w>
diary</w>
satin</w>
ola</w>
ficial</w>
dorm</w>
span
sobbed</w>
pumped</w>
bout</w>
ginger</w>
franklin</w>
tremen
knots</w>
stairwell</w>
flirting</w>
dani</w>
subur
pump</w>
mocking</w>
yank</w>
lil</w>
giggles</w>
warden</w>
hushed</w>
tasha</w>
temptation</w>
trails</w>
hesitantly</w>
snaps</w>
mikhail</w>
blessing</w>
skele
assist</w>
willi
wardro
dim
vital</w>
ros
rens</w>
slips</w>
archer</w>
swelled</w>
gon
shannon</w>
mesmeri
entary</w>
christi
basketball</w>
uno
youngest</w>
tabitha</w>
terior</w>
jewel</w>
suitable</w>
tier</w>
elie</w>
bugs</w>
itlyn</w>
slur
drown</w>
referred</w>
companies</w>
towering</w>
eman
composure</w>
ranks</w>
product</w>
oven</w>
jasper</w>
gori</w>
wild
perpe
bitterly</w>
surveill
archie</w>
rail
cope</w>
surveillance</w>
ado</w>
sympathetic</w>
enchan
exotic</w>
dget</w>
elves</w>
snakes</w>
manny</w>
blamed</w>
venture</w>
weeping</w>
neal</w>
alternative</w>
immun
pursuit</w>
painter</w>
healer</w>
endure</w>
colum
mildly</w>
sale
bait</w>
bubba</w>
operations</w>
handling</w>
erotic</w>
dign
guer
composed</w>
stile</w>
rion</w>
nat</w>
suggesti
orleans</w>
dispat
descending</w>
complaining</w>
vengeance</w>
tradition</w>
serves</w>
ellit
uncontrolla
tumbling</w>
ogra
buttoned</w>
hend</w>
satellit
remark</w>
pand
caressing</w>
lov
weed</w>
sway</w>
wheeled</w>
beau</w>
talon</w>
spac
rotten</w>
reverse</w>
stumble</w>
controlling</w>
anony
outward</w>
mira</w>
scooted</w>
craw
harley</w>
colby</w>
liquor</w>
excuses</w>
syr
vivian</w>
school
acquaint
vau
rowan</w>
jammed</w>
fried</w>
fastened</w>
vanessa</w>
thom</w>
commercial</w>
zio</w>
twined</w>
eted</w>
charging</w>
inched</w>
greatly</w>
controls</w>
household</w>
beans</w>
brianna</w>
celebration</w>
uti
trage
ppery</w>
dab
behave</w>
slower</w>
heir</w>
elements</w>
costume</w>
silas</w>
bursting</w>
purposes</w>
vari
abdomen</w>
crimes</w>
amen
clawed</w>
supported</w>
magazines</w>
bared</w>
confession</w>
affairs</w>
hush</w>
angles</w>
paraly
tingling</w>
angus</w>
crisis</w>
suz
spin
poker</w>
ingy</w>
courtney</w>
21</w>
gleamed</w>
zipper</w>
soaking</w>
shields</w>
galax
rape</w>
faye</w>
harmon
diplo
zily</w>
triumph</w>
mbo</w>
alarmed</w>
raven
benny</w>
stles</w>
ounted</w>
logue</w>
heavier</w>
straw
etched</w>
glistening</w>
outcome</w>
handy</w>
abuse</w>
manor</w>
ero
cation</w>
apply</w>
finest</w>
tiness</w>
doorbell</w>
casca
shuttle</w>
comparison</w>
dirk</w>
tiles</w>
showered</w>
impulse</w>
40</w>
oed</w>
blankly</w>
alliance</w>
adopted</w>
cers</w>
ama</w>
ara
fills</w>
uncertainty</w>
ruled</w>
lucia</w>
lantern</w>
haley</w>
agoni
seren
bitten</w>
cedes</w>
races</w>
groaning</w>
vigor
tens</w>
distinc
annab
sali
revelation</w>
roommate</w>
toxic
tempting</w>
piles</w>
hideous</w>
frowns</w>
fare
clubs</w>
tuck</w>
alexia</w>
vish</w>
rot
litting</w>
leaping</w>
behalf</w>
blings</w>
berries</w>
spas
junk</w>
'l</w>
parlor</w>
vals</w>
ugh</w>
supre
navig
juliet</w>
whistled</w>
veronica</w>
reuben</w>
quan
predictable</w>
exquisite</w>
adequ
dissi
connections</w>
astonishment</w>
accomplish</w>
lash</w>
sub</w>
repeating</w>
prefer
elu
conflict</w>
wars</w>
veri
sprinted</w>
amusing</w>
tton</w>
sentin
someplace</w>
admiral</w>
wade</w>
linen</w>
niece</w>
eyela
dr</w>
paradise</w>
loomed</w>
eyelashes</w>
anguish</w>
helplessly</w>
¨c</w>
chand
surreal</w>
mann</w>
traitor</w>
manife
milton</w>
carly</w>
stammered</w>
payment</w>
grove</w>
resembled</w>
brandy</w>
symp
killers</w>
swiped</w>
suggesting</w>
yway</w>
shattering</w>
edition</w>
chie</w>
noelle</w>
label
gross</w>
gret
pill</w>
risen</w>
reduced</w>
lywood</w>
cath
umb
involun
awakened</w>
india</w>
sandra</w>
noting</w>
darting</w>
wardrobe</w>
sarcastically</w>
wilson</w>
ultimately</w>
lila</w>
legged</w>
i'm</w>
tionist</w>
gang
iry</w>
depressed</w>
microphone</w>
arts</w>
demeanor</w>
wig</w>
glint</w>
dusk</w>
thumb
kade</w>
increasingly</w>
stalking</w>
cupping</w>
published</w>
succu
speech
review</w>
recorded</w>
matically</w>
farmer</w>
splash</w>
slack</w>
icians</w>
mathe
//</w>
sneered</w>
encourag
signature</w>
contacts</w>
piti
marsh</w>
leton</w>
conner</w>
tooth</w>
spectacu
punished</w>
19</w>
tily</w>
reader</w>
obeyed</w>
millie</w>
supervi
septem
scalp</w>
skies</w>
fuzzy</w>
eau</w>
confusing</w>
colton</w>
resolved</w>
partments</w>
punching</w>
swings</w>
experiences</w>
backup</w>
hound</w>
ala</w>
september</w>
cookie</w>
convul
norman</w>
quivering</w>
monkey</w>
inform</w>
identified</w>
gleam</w>
wraps</w>
thia</w>
suspicions</w>
tanned</w>
gloom</w>
steri
acceptance</w>
mans</w>
bracelet</w>
200
hul
stations</w>
ile</w>
supposedly</w>
anchor</w>
sels</w>
rav
aggressive</w>
snuck</w>
entially</w>
ud</w>
bever
voy
mari</w>
clip</w>
siblings</w>
ezra</w>
pam</w>
murmurs</w>
confess</w>
nestled</w>
mob</w>
detected</w>
dreadful</w>
shawn</w>
radar</w>
lock
bited</w>
bers</w>
playful</w>
hudson</w>
africa</w>
model
handkerchief</w>
tucking</w>
blaze</w>
hesitant</w>
whee
array</w>
towns</w>
pepper</w>
moans</w>
ium</w>
diver
yourselves</w>
captive</w>
scenario</w>
soever</w>
federal</w>
carolina</w>
scientific</w>
depending</w>
oath</w>
mitted</w>
decade</w>
spiritual</w>
reese</w>
neutral</w>
rehear
ebe</w>
stran
marissa</w>
ghtens</w>
dox</w>
conj
reporters</w>
commitment</w>
jee
discarded</w>
capit
apron</w>
shriek</w>
coated</w>
appreciation</w>
dimly</w>
chapel</w>
spl
anti</w>
pets</w>
tuous</w>
evelyn</w>
couples</w>
prick</w>
rescued</w>
patting</w>
clair</w>
desires</w>
easing</w>
htt
emptied</w>
achieve</w>
lexie</w>
interrupting</w>
gingerly</w>
aster
limb</w>
typed</w>
observation</w>
calming</w>
shocking</w>
rr
apologized</w>
actor</w>
---</w>
sites</w>
abbey</w>
thly</w>
barking</w>
vamp</w>
whit
nausea</w>
messing</w>
hayden</w>
checks</w>
appetite</w>
tcher</w>
feather</w>
moisture</w>
coldly</w>
mish</w>
isolated</w>
generations</w>
evo
snort</w>
sable</w>
harold</w>
gunner</w>
deaf
chunk</w>
45</w>
muted</w>
commit</w>
robots</w>
gazes</w>
fluttering</w>
kills</w>
busted</w>
grimace</w>
yin</w>
shuffling</w>
ribbon</w>
hating</w>
beef</w>
unexpec
figuring</w>
coher
solar</w>
distribu
arena</w>
ou</w>
undoub
wires</w>
racks</w>
relevant</w>
custody</w>
capacity</w>
ecstasy</w>
ouring</w>
fraction</w>
cruise</w>
unner
mercedes</w>
strides</w>
boulder</w>
scarlett</w>
gulp</w>
undoubtedly</w>
bandage</w>
granite</w>
betray</w>
nished</w>
mound</w>
caves</w>
substan
glued</w>
gings</w>
boiling</w>
punish</w>
bursts</w>
bony</w>
permanently</w>
lola</w>
dizz
aiming</w>
transm
100</w>
uary</w>
escal
rosie</w>
resigned</w>
shuddering</w>
concentrating</w>
cheri
check
grows</w>
rider</w>
vegetables</w>
relatives</w>
miss
bernard</w>
pandora</w>
fie</w>
scarred</w>
georgia</w>
vomit</w>
vated</w>
snarl</w>
astonished</w>
explor
announcement</w>
cale</w>
paces</w>
gregori</w>
vacant</w>
operating</w>
meta
upwards</w>
towels</w>
laurel</w>
dancer</w>
b.</w>
pup
bronze</w>
rumor</w>
pyra
owners</w>
independent</w>
division</w>
sharon</w>
policy</w>
howled</w>
containing</w>
clues</w>
princi
fergus</w>
compartment</w>
spoo
exploring</w>
blushing</w>
bewildered</w>
sends</w>
paige</w>
mutual</w>
gha
candace</w>
torment</w>
dic</w>
transferred</w>
spoiled</w>
court
amp
flatly</w>
buck
fighters</w>
harris</w>
fathers</w>
chir
speakers</w>
adorable</w>
sandwiches</w>
notic
personnel</w>
cape</w>
198
speechless</w>
chatter</w>
bouts</w>
shaved</w>
onably</w>
mutter</w>
lass</w>
arc</w>
lore
doyle</w>
committee</w>
sai
rell</w>
recording</w>
randy</w>
scenes</w>
shadowed</w>
parting</w>
ronnie</w>
intoxic
scarcely</w>
cot</w>
convenience</w>
commands</w>
borrow</w>
cheating</w>
mick
w.
agitated</w>
jay
cindy</w>
battles</w>
defined</w>
ddened</w>
thel</w>
sagged</w>
pupils</w>
condem
harmless</w>
tac
harvey</w>
cun
badge</w>
flopped</w>
departed</w>
aval
ivory</w>
whatsoever</w>
prophecy</w>
paired</w>
dip</w>
caf
springs</w>
battery</w>
recommen
debate</w>
classic</w>
rotting</w>
howl</w>
hailey</w>
unexpectedly</w>
mechanical</w>
err
attic</w>
hopeless</w>
steal
country
quicker</w>
raked</w>
flexed</w>
swelling</w>
unwilling</w>
exasperated</w>
jewels</w>
hollywood</w>
shadowy</w>
gretchen</w>
wears</w>
ssell</w>
sas</w>
document</w>
comprehend</w>
c'mon</w>
importantly</w>
flynn</w>
trigg
glided</w>
skul
indicate</w>
zel
scraping</w>
lori</w>
dodge</w>
outing</w>
reassure</w>
priests</w>
kendall</w>
abdu
benja
texted</w>
mackenzie</w>
ysis</w>
tian</w>
islands</w>
bedded</w>
providing</w>
underworld</w>
kayla</w>
courtesy</w>
sailing</w>
muscled</w>
cany
twitching</w>
twilight</w>
jumps</w>
short
countries</w>
immense</w>
lain</w>
proposal</w>
phoebe</w>
elessly</w>
approve</w>
ang</w>
visits</w>
potent</w>
electrical</w>
regained</w>
singer</w>
nicolas</w>
nay</w>
smol
rable</w>
morris</w>
gram</w>
rey
bleed</w>
pol</w>
howling</w>
avi
static</w>
clicking</w>
paranoid</w>
commotion</w>
snuggled</w>
survivors</w>
etta</w>
causes</w>
lurking</w>
hypnoti
unbelievable</w>
tavern</w>
tragedy</w>
subjects</w>
abrupt</w>
stupi
patches</w>
clark</w>
tunic</w>
white
negle
impress</w>
compul
bennett</w>
matches</w>
littered</w>
alysis</w>
designer</w>
sson</w>
fixing</w>
fletcher</w>
dose</w>
stacy</w>
pathy</w>
muster</w>
smashwords</w>
borne</w>
laser</w>
stering</w>
remor
nas
managing</w>
skit
imper
forgiveness</w>
intensi
substance</w>
involve</w>
annabelle</w>
wal</w>
measured</w>
server</w>
scheme</w>
disori
phili
corpses</w>
ballroom</w>
admiring</w>
bruise</w>
foli
creative</w>
pal</w>
imit
kathy</w>
helena</w>
butterflies</w>
perio
pag
ideal</w>
benjamin</w>
pouch</w>
applic
23</w>
january</w>
warded</w>
solem
flattened</w>
connecting</w>
barbara</w>
tfully</w>
love
erson</w>
beautifully</w>
zachary</w>
cramped</w>
sensations</w>
lah</w>
brooks</w>
yanking</w>
nape</w>
worm</w>
brai
groin</w>
unmistakable</w>
richar
hummed</w>
devices</w>
considerable</w>
standar
streamed</w>
placement</w>
temporarily</w>
marshal</w>
elend</w>
acid</w>
attending</w>
sparkled</w>
ister</w>
bears</w>
road
mably</w>
corporate</w>
squi
november</w>
dart</w>
sprink
come
austr
gloria</w>
policeman</w>
craved</w>
comra
thee</w>
baf
martha</w>
casino</w>
wonders</w>
method</w>
gwen
discer
sights</w>
skilled</w>
assembled</w>
collecting</w>
tos</w>
brock</w>
robbie</w>
rita</w>
lawrence</w>
splen
conviction</w>
odor</w>
econom
corridors</w>
copyright</w>
russell</w>
regularly</w>
viktor</w>
hay</w>
lipstick</w>
bart</w>
ticked</w>
skepti
hears</w>
eman</w>
tents</w>
bathed</w>
awaiting</w>
tres</w>
surprises</w>
streak</w>
sire</w>
applause</w>
louise</w>
caine</w>
scrun
mars</w>
dismay</w>
chimed</w>
ship
supporting</w>
colleagues</w>
medium</w>
jaime</w>
decem
chilly</w>
tammy</w>
rippled</w>
presumably</w>
pondered</w>
chron
ata</w>
gordon</w>
bane</w>
stew</w>
sirens</w>
rah</w>
priority</w>
stric
kra
wry</w>
hull</w>
gio</w>
kai</w>
ggles</w>
fty</w>
steak</w>
flutter</w>
stil</w>
confront</w>
nathani
tilt</w>
shelby</w>
pop
harshly</w>
ov</w>
guarding</w>
unbearable</w>
accompany</w>
ominous</w>
mbered</w>
ruler</w>
elep
denying</w>
makeshift</w>
inar</w>
wept</w>
throbbed</w>
pee</w>
itution</w>
infli
asha</w>
poster</w>
plastered</w>
honored</w>
concert</w>
sophistic
idly</w>
burger</w>
panted</w>
grandparents</w>
tenderly</w>
harmed</w>
commanding</w>
pent</w>
angelo</w>
suffo
sienna</w>
disda
chorus</w>
bates</w>
nel
praise</w>
paci
vowed</w>
lishment</w>
primary</w>
backside</w>
rear
posted</w>
writhing</w>
momentum</w>
encouraging</w>
enting</w>
december</w>
whipping</w>
threaten</w>
uniforms</w>
stiffly</w>
camil
gestures</w>
proced
chuckling</w>
shire</w>
sandals</w>
anni</w>
grena
marching</w>
aback</w>
wrenched</w>
voted</w>
mechani
lesser</w>
creaked</w>
siren</w>
paws</w>
mirrors</w>
rumbling</w>
rebel</w>
fund</w>
receptionist</w>
episode</w>
sensible</w>
amara</w>
sales</w>
tentati
fidge
pleasantly</w>
bulous</w>
wiggled</w>
drenched</w>
mischiev
lighted</w>
warmly</w>
bodyguard</w>
jogged</w>
master
bradley</w>
beta</w>
hissing</w>
diso
appealing</w>
chilled</w>
betty</w>
premi
pirates</w>
pursue</w>
fearful</w>
denise</w>
contrary</w>
persi
chers</w>
tastes</w>
spectacular</w>
pointless</w>
cheered</w>
borrowed</w>
teenagers</w>
flicking</w>
depression</w>
boxers</w>
summon</w>
blindly</w>
anita</w>
wns</w>
denny</w>
wink
phine</w>
ventured</w>
tentatively</w>
smeared</w>
cupboard</w>
cigar</w>
tled</w>
sculp
perple
hyper
idance</w>
hardest</w>
baron</w>
parade</w>
fever
turkey</w>
dot</w>
recovery</w>
k.</w>
iris</w>
brightened</w>
quin</w>
onally</w>
latch</w>
nearer</w>
frankie</w>
deme
clench</w>
cheerfully</w>
standards</w>
rests</w>
antique</w>
tongues</w>
devi
colony</w>
yar
slacks</w>
pper
instrument</w>
blinded</w>
poised</w>
individuals</w>
hostile</w>
col</w>
interfere</w>
faithful</w>
mpering</w>
allen</w>
henri</w>
reverend</w>
consuming</w>
traces</w>
eyard</w>
dangerously</w>
ads</w>
thumping</w>
nuclear</w>
dimini
brennan</w>
garden
squirmed</w>
tical</w>
observe</w>
hs</w>
brenda</w>
hurled</w>
bathing</w>
reassured</w>
occur</w>
mole
greedy</w>
tilting</w>
bulk</w>
tingle</w>
stables</w>
lai</w>
ezio</w>
stful</w>
invasion</w>
holder</w>
ancestors</w>
smallest</w>
miri
strangled</w>
contest</w>
targets</w>
exterior</w>
emptiness</w>
wendy</w>
buckle</w>
admiration</w>
cannon</w>
shards</w>
obsessed</w>
hugs</w>
procee
phen
modest</w>
ilah</w>
ackers</w>
hurrying</w>
canopy</w>
altered</w>
softer</w>
pean
management</w>
celia</w>
moss</w>
contacted</w>
tremendous</w>
blunt</w>
scotch</w>
gladly</w>
collar
stinging</w>
screens</w>
complex
approved</w>
rejected</w>
tomb</w>
screeched</w>
scales</w>
butterfly</w>
hearted</w>
murders</w>
storms</w>
italy</w>
flaming</w>
absurd</w>
sunrise</w>
mind
inquisit
mass
appren
hooded</w>
topped</w>
spot
dignity</w>
acquired</w>
spared</w>
pops</w>
www.
risked</w>
strongest</w>
reckon</w>
cling</w>
seductive</w>
vlad</w>
royce</w>
blend</w>
univer
dos</w>
dawned</w>
oversized</w>
widow</w>
sier</w>
199
expe
absent</w>
twenties</w>
more
cheekbones</w>
lex</w>
cocky</w>
baked</w>
itim
expanse</w>
tear
seas</w>
hotter</w>
boiled</w>
longest</w>
weeds</w>
seventh</w>
fuckin</w>
deposit
delilah</w>
die
dill
searing</w>
niko
polish</w>
clara</w>
belongings</w>
schools</w>
irony</w>
cata
remnants</w>
kicks</w>
gely</w>
manufac
sailed</w>
symbols</w>
rattling</w>
pang</w>
lacked</w>
glas</w>
issued</w>
swamp</w>
presents</w>
gard</w>
denial</w>
strict</w>
adjusting</w>
smoked</w>
slashed</w>
thou</w>
pussy</w>
optimi
hmmm</w>
clayton</w>
looming</w>
bbery</w>
satisfy</w>
troubles</w>
vacu
open
pear
menacing</w>
unnatural</w>
costs</w>
beads</w>
izing</w>
units</w>
yna</w>
musical</w>
mortality</w>
legitim
197
intu
emerge</w>
beaming</w>
rifles</w>
meadow</w>
gate
bubbles</w>
strikes</w>
shark</w>
procedure</w>
newspapers</w>
bunk</w>
basha</w>
tack</w>
rented</w>
heroes</w>
effectively</w>
douglas</w>
bree</w>
rained</w>
treach
sample</w>
graduate</w>
certi
trance</w>
scrap</w>
tti</w>
halluc
dger</w>
infer
galaxy</w>
cec
stubble</w>
plea</w>
bedrooms</w>
interjected</w>
smoo
develop</w>
ushered</w>
layne</w>
kaitlyn</w>
conci
louie</w>
bolts</w>
conrad</w>
error</w>
engage</w>
auth
signaled</w>
angeles</w>
sannah</w>
homeless</w>
shells</w>
hardy</w>
clutch</w>
unnecessary</w>
gunfire</w>
feig
coco
inspection</w>
bryan</w>
baker</w>
differences</w>
damp
crink
awaited</w>
kingly</w>
bikin
aw</w>
pins</w>
mouthful</w>
factor</w>
pronounced</w>
extr
disturb</w>
card
tow</w>
tingly</w>
emed</w>
teren</w>
blackened</w>
harrison</w>
groans</w>
dedicated</w>
consideration</w>
rella</w>
ouch</w>
gemma</w>
diet</w>
virtually</w>
obst
ocu
peeking</w>
hospit
congre
aspect</w>
talented</w>
talents</w>
eval</w>
endured</w>
ambassa
alexis</w>
00
transpar
represented</w>
fasc
deepest</w>
restrained</w>
mona</w>
rental</w>
displea
squinting</w>
eive</w>
volunteered</w>
urging</w>
strom</w>
karl</w>
celeste</w>
boarding</w>
alism</w>
oci
mace</w>
copies</w>
blazed</w>
goodnight</w>
fascination</w>
brun
skinned</w>
constructed</w>
acknowledg
torches</w>
thfully</w>
insects</w>
disappearance</w>
vibrated</w>
holo
dawson</w>
thanks
plump</w>
pad
realise</w>
facial</w>
r.</w>
pork</w>
overlooking</w>
ema
revi
vod
stifled</w>
ellis</w>
ske
unfair</w>
rum</w>
inspired</w>
thumped</w>
rivers</w>
apologies</w>
susannah</w>
pipes</w>
sloane</w>
puddle</w>
worship</w>
understand
sks</w>
orable</w>
deafening</w>
communications</w>
stee
jolted</w>
bitterness</w>
zip</w>
pom
dumb
satellite</w>
clint</w>
concu
scrip
gag</w>
ggi
draws</w>
mexican</w>
dotted</w>
sab
neys</w>
foam</w>
byron</w>
welled</w>
solemnly</w>
plainly</w>
confrontation</w>
stine</w>
business
blind
proving</w>
label</w>
dants</w>
sarcastic</w>
raining</w>
kilo
bro</w>
detailed</w>
pinning</w>
gran</w>
doin'</w>
waistband</w>
jazz</w>
iciently</w>
rosa</w>
instruments</w>
hangs</w>
contempt</w>
phase</w>
naughty</w>
fucker</w>
envy</w>
trotted</w>
sporting</w>
lure</w>
chet</w>
genetic</w>
blossom
reflecting</w>
ddie</w>
attendant</w>
merged</w>
surviving</w>
deri
strewn</w>
scrubbed</w>
luxuri
ttin</w>
spitting</w>
harri
flown</w>
tening</w>
sby</w>
riders</w>
kota</w>
canyon</w>
abs</w>
milli
exists</w>
cryp
planets</w>
jam</w>
funds</w>
rocket</w>
burying</w>
thanksgiving</w>
ros</w>
pist</w>
extending</w>
softness</w>
skyla</w>
liberty</w>
allies</w>
claudia</w>
eck</w>
predat
plopped</w>
evapor
isra
imperial</w>
graduated</w>
shoots</w>
cheers</w>
eliness</w>
zu
sulli
industry</w>
arguments</w>
expectations</w>
bank
mated</w>
humiliation</w>
citizen</w>
wheelchair</w>
ration
churning</w>
lyssa</w>
cockpit</w>
roe</w>
reverber
dron</w>
cac
catholi
amid</w>
rasped</w>
protest
maps</w>
forearms</w>
satisfying</w>
reaper</w>
ome</w>
encourage</w>
unfolded</w>
wryly</w>
walkway</w>
orphan
diving</w>
crosses</w>
yup</w>
vodka</w>
prayers</w>
owns</w>
oscar</w>
lashed</w>
compen
solemn</w>
design
alison</w>
severed</w>
unspoken</w>
challenging</w>
vas
glen
17
evans</w>
expressed</w>
infuri
a.
sapp
vow</w>
brett</w>
confronted</w>
binding</w>
narrowing</w>
keyboard</w>
gracefully</w>
whimper</w>
scents</w>
persuade</w>
sweetness</w>
martin
ridden</w>
por</w>
cently</w>
impatience</w>
frenzy</w>
enelle</w>
dodged</w>
tax</w>
warmer</w>
plying</w>
wny</w>
attract</w>
impul
globe</w>
alyssa</w>
prosecu
materials</w>
dillon</w>
resemblance</w>
willed</w>
salem</w>
bounce</w>
squeaked</w>
ironic</w>
condo</w>
ythe</w>
servations</w>
pia</w>
:30</w>
loft</w>
exaggerated</w>
sheath</w>
nursing</w>
liza</w>
chemical</w>
rated</w>
projec
daph
rubble</w>
whined</w>
contradic
slippery</w>
practicing</w>
fabulous</w>
brushes</w>
bombs</w>
portrait</w>
warrant</w>
straightening</w>
reson
jaenelle</w>
dissip
daphne</w>
confirmation</w>
fools</w>
deliberate</w>
scrambling</w>
nipples</w>
kar</w>
devoted</w>
thirst</w>
guiding</w>
pean</w>
efficient</w>
brook</w>
drawled</w>
chemistry</w>
pred
immune</w>
dency</w>
countryside</w>
brakes</w>
bare
waits</w>
buddies</w>
aj</w>
hn</w>
texts</w>
kath
profit</w>
paw</w>
knotted</w>
wavering</w>
puffed</w>
flooding</w>
definite</w>
pajamas</w>
ising</w>
uous</w>
chari
bidding</w>
reen</w>
mingled</w>
insanity</w>
sullivan</w>
dious</w>
approxim
dramatically</w>
bounded</w>
gom
urs</w>
roth</w>
righ
posts</w>
agenda</w>
packet</w>
restaurants</w>
garath</w>
bun</w>
brisk
spaces</w>
residents</w>
blue
splinter
fers</w>
entertaining</w>
civilization</w>
wizards</w>
kily</w>
gum</w>
grayson</w>
fleeting</w>
fatigue</w>
intimacy</w>
speeding</w>
ordering</w>
fewer</w>
signing</w>
estimated</w>
cathe
sweatshirt</w>
kish</w>
hoar
bowing</w>
squeak</w>
span</w>
loneliness</w>
francis</w>
coul
glazed</w>
sniffing</w>
columns</w>
seldom</w>
compelled</w>
bless</w>
weaving</w>
rue
risks</w>
oid</w>
nes
detect</w>
brina</w>
vein</w>
http</w>
elope</w>
custom</w>
versary</w>
cardboard</w>
mute</w>
aroma</w>
collins</w>
rio</w>
madam</w>
bulging</w>
initially</w>
chef</w>
scotland</w>
biscu
screwing</w>
mber
latched</w>
website</w>
wick</w>
hearth</w>
butch</w>
belgarath</w>
kiran</w>
experiencing</w>
drill</w>
arching</w>
wi</w>
beers</w>
scurried</w>
rearview</w>
cozy</w>
vance</w>
chick
ts
decides</w>
stricken</w>
seer</w>
greasy</w>
kan</w>
teens</w>
clare</w>
raped</w>
kennedy</w>
corrup
thrusts</w>
quivered</w>
mainten
haste</w>
bic</w>
andre</w>
carries</w>
shave</w>
resur
harness</w>
predator</w>
luna</w>
bram</w>
wrec
bryn</w>
rustling</w>
outsi
stabbing</w>
infection</w>
moses</w>
faltered</w>
worthless</w>
regan</w>
fantasies</w>
ology</w>
everyday</w>
projects</w>
evie
tits</w>
stubbor
peter
conceal</w>
rae</w>
manic
eabouts</w>
enli
spic
wer
kle
artificial</w>
wag
suppressed</w>
calli
spiral</w>
comb</w>
silver
lucivar</w>
gigan
cluster</w>
beep
ott</w>
jersey</w>
cushion</w>
associated</w>
widening</w>
purely</w>
hog
emerson</w>
conor</w>
clumsy</w>
hysterical</w>
hhh</w>
curses</w>
nol
ict</w>
leto</w>
bachel
winkler</w>
stacks</w>
louisa</w>
erra</w>
warlord</w>
european</w>
calen
agnes</w>
jinn</w>
doom</w>
widen</w>
passage
fellows</w>
illian</w>
wearily</w>
iko</w>
cushions</w>
elite</w>
merchan
asser
visual</w>
poor
shrugging</w>
lacy</w>
expense</w>
mir</w>
elvis</w>
poetry</w>
capti
shrill</w>
wart</w>
tol
meets</w>
radiated</w>
esses</w>
shay</w>
exasperation</w>
daggers</w>
sniff</w>
rabb
expose</w>
budge</w>
petty</w>
inder</w>
angelica</w>
sections</w>
valry</w>
pro</w>
doomed</w>
revolution</w>
brody</w>
'n</w>
spears</w>
uished</w>
judged</w>
wrought</w>
myth</w>
interrogation</w>
solo
iss
graduation</w>
cani
tablet</w>
locals</w>
creased</w>
sadie</w>
lids</w>
outta</w>
crude</w>
loan</w>
joyah</w>
concerning</w>
sincerely</w>
fluffy</w>
angelina</w>
paralle
nickname</w>
earnest</w>
swer
persons</w>
parallel</w>
beckoned</w>
pots</w>
tourist</w>
gigantic</w>
untie</w>
stalker</w>
exploding</w>
stillness</w>
simone</w>
reckless</w>
growls</w>
attacker</w>
sternly</w>
lem</w>
diane</w>
slaughter</w>
pling</w>
moth</w>
coiled</w>
vibrating</w>
t.</w>
sms</w>
corin
wince</w>
hazy</w>
followers</w>
christine</w>
expectantly</w>
intensely</w>
doorknob</w>
guing</w>
fleeing</w>
fuss</w>
vault</w>
trickle</w>
terrain</w>
stink</w>
intruder</w>
encouragement</w>
aty</w>
reasoning</w>
defenses</w>
cron
compare</w>
merri
stale</w>
intimidating</w>
criminals</w>
profound</w>
pled</w>
mode
phenom
glossy</w>
street
196
rattle</w>
sinister</w>
miriam</w>
did
retreating</w>
ring
tasks</w>
valent</w>
striding</w>
shh</w>
ghn</w>
caps</w>
orb</w>
toned</w>
cad
ruthless</w>
astic</w>
urgently</w>
maintenance</w>
lith</w>
soothed</w>
reha
prevented</w>
persist
jin</w>
tenderness</w>
strictly</w>
teresa</w>
careless</w>
skimmed</w>
tubes</w>
preparation</w>
cocktail</w>
table
signals</w>
festival</w>
nies</w>
nelson</w>
cylin
admission</w>
opera</w>
ound
bricks</w>
richie</w>
hoi
rainbow</w>
possessive</w>
serial</w>
farewell</w>
vibrant</w>
mail
drivers</w>
thing
pry</w>
draft</w>
weakened</w>
desc
transformation</w>
flap</w>
duchess</w>
mil</w>
historical</w>
fang</w>
oom</w>
digital</w>
ashton</w>
subdu
reece</w>
tu</w>
rede
philosophy</w>
brace</w>
architec
executive</w>
.....</w>
guild</w>
frequent</w>
wen</w>
ural</w>
evalu
proposed</w>
dically</w>
bobbed</w>
transparent</w>
sturdy</w>
reliable</w>
loosely</w>
inward</w>
hinges</w>
contemplated</w>
lucinda</w>
germany</w>
fle</w>
vamps</w>
tric</w>
cheated</w>
sophisticated</w>
soothe</w>
chained</w>
pastor</w>
interven
counters</w>
exting
briskly</w>
hilar
sailors</w>
mester</w>
understands</w>
fatal</w>
yach
vaughn</w>
scrape</w>
rib</w>
randall</w>
noisy</w>
calf</w>
12
pools</w>
tches</w>
admitting</w>
wells</w>
interc
ignition</w>
guidance</w>
demi
crumbling</w>
wand</w>
cruiser</w>
tious</w>
scowling</w>
mirac
fter</w>
sylvia</w>
seeped</w>
promo
strung</w>
kre
feral</w>
repri
neon</w>
minimum</w>
performing</w>
runner</w>
rene</w>
raft</w>
thorough</w>
outright</w>
miniature</w>
lized</w>
counts</w>
tour
highness</w>
here
drying</w>
vile</w>
thieves</w>
acce
ruffled</w>
prom</w>
armies</w>
gruff</w>
executed</w>
ttled</w>
terrorist</w>
righte
salute</w>
nothin'</w>
medication</w>
inherited</w>
glittered</w>
mmers</w>
kla
characteri
billion</w>
untouched</w>
trunks</w>
mercen
cated</w>
oo</w>
luca</w>
habits</w>
delicately</w>
crates</w>
boo</w>
volunteer</w>
marguer
inwardly</w>
hallow
drop
kends</w>
clapping</w>
footing</w>
carrot</w>
tanks</w>
smarter</w>
petite</w>
knox</w>
denver</w>
consisted</w>
enveloped</w>
clouded</w>
officials</w>
teries</w>
tendri
adele</w>
stains</w>
pads</w>
ornate</w>
marguerite</w>
evieve</w>
motive</w>
judy</w>
apologetic</w>
affection
libby</w>
arrogance</w>
anonymous</w>
bikini</w>
accusation</w>
trim</w>
wyn</w>
mercer</w>
dungeon</w>
wincing</w>
trickled</w>
shirley</w>
mankind</w>
genevieve</w>
forcefully</w>
tragic</w>
pota
remorse</w>
frac
favour
recovering</w>
brunette</w>
collective</w>
engulfed</w>
distracting</w>
vender</w>
splitting</w>
boarded</w>
adequate</w>
that
preoccupied</w>
holster</w>
gracie</w>
fooled</w>
silvery</w>
selle</w>
ret</w>
primitive</w>
excused</w>
necessity</w>
evenly</w>
ret
poo</w>
benefits</w>
widely</w>
forgiven</w>
chew</w>
blat
lemon</w>
ern
embro
vings</w>
trio</w>
quiver</w>
peeling</w>
infant</w>
heights</w>
proxim
mentor</w>
hats</w>
childish</w>
straighten</w>
quake</w>
deed</w>
articles</w>
tolerate</w>
ams</w>
reactions</w>
peyton</w>
crest</w>
chelsea</w>
ah
wager</w>
mall
lator</w>
disgui
coy</w>
rics</w>
trol
hammering</w>
defending</w>
tionary</w>
hairy</w>
exu
shitty</w>
penelope</w>
worshi
lodged</w>
anton</w>
pointedly</w>
observing</w>
slicing</w>
substantial</w>
essential</w>
balled</w>
steele</w>
tickled</w>
pyramid</w>
metres</w>
maneuver</w>
conserv
leash</w>
iv</w>
flag
coven</w>
waterfall</w>
unra
lou</w>
nified</w>
lumin
javier</w>
imaginary</w>
crackling</w>
ambassador</w>
knit</w>
gliding</w>
colder</w>
statues</w>
puff</w>
hitched</w>
hass
fisted</w>
amos</w>
woven</w>
unease</w>
sherry</w>
improve</w>
dangled</w>
ae
pillar</w>
mint</w>
lifestyle</w>
wrestling</w>
poem</w>
mornings</w>
erase</w>
migr
employed</w>
marvel
crackled</w>
lazily</w>
biceps</w>
fraser</w>
assassins</w>
von</w>
obliged</w>
destined</w>
restored</w>
silenced</w>
holt</w>
functi
lionaire</w>
horribly</w>
blah</w>
honeymoon</w>
skylar</w>
courtroom</w>
affir
cabinets</w>
toma
poke</w>
pains</w>
nership</w>
logs</w>
ignorance</w>
risky</w>
downed</w>
coherent</w>
housekeeper</w>
stroll</w>
flustered</w>
lair</w>
zable</w>
vantage</w>
remainder</w>
docks</w>
cl</w>
anyhow</w>
rena</w>
penis</w>
gno
champion</w>
aqu
disappears</w>
wyl</w>
loyd</w>
liv</w>
lavender</w>
glen</w>
phed</w>
naive</w>
enclosed</w>
relentless</w>
ien</w>
guarante
cating</w>
lacking</w>
ticking</w>
sheila</w>
streams</w>
significance</w>
splin
kyrian</w>
ignorant</w>
tlessly</w>
flaw
yp
os
depended</w>
smoky</w>
dissolved</w>
renewed</w>
ola
unnoticed</w>
obsession</w>
ckey</w>
fi</w>
ssal</w>
arrives</w>
alicia</w>
streaks</w>
hormon
etan</w>
steered</w>
kent</w>
cee</w>
rico</w>
redhead</w>
katy</w>
aristo
landon</w>
ghostly</w>
fications</w>
merlin</w>
doorstep</w>
chunks</w>
legion</w>
enthusiastic</w>
clarissa</w>
budd
announce</w>
weekends</w>
solo</w>
grill</w>
mary
zoey</w>
muzzle</w>
massac
toms</w>
sparked</w>
millen
snatch</w>
dislike</w>
mush
ferry</w>
brother
cop
modi
impossibly</w>
tuned</w>
seating</w>
russia</w>
ffel</w>
darkening</w>
frail</w>
respectful</w>
intricate</w>
fries</w>
crate</w>
brent</w>
tentative</w>
hooves</w>
dipping</w>
lloyd</w>
filtered</w>
ain
shimmered</w>
patrons</w>
hammered</w>
atlanta</w>
arno
yawn</w>
spiders</w>
blun
contemplating</w>
appointed</w>
salon</w>
outskirts</w>
crotch</w>
aspir
magnetic</w>
sheen</w>
britt
voic
rejection</w>
loser</w>
frog</w>
detached</w>
centered</w>
bandages</w>
ssful</w>
involvement</w>
drugged</w>
travelling</w>
plum
curran</w>
consist
stamped</w>
battlefield</w>
verbal</w>
emerging</w>
rish</w>
links</w>
toa
definition</w>
surgeon</w>
sham
miracul
jem</w>
infinite</w>
supreme</w>
shivers</w>
motioning</w>
cheering</w>
proximity</w>
chaiko</w>
income</w>
heating</w>
brew</w>
erran
chatted</w>
subsided</w>
snickered</w>
poisoned</w>
leonard</w>
inspected</w>
halloween</w>
craving</w>
conceded</w>
snarling</w>
idiots</w>
analysis</w>
shovel</w>
stical</w>
slaugh
gardener</w>
derick</w>
salty</w>
numbered</w>
café</w>
cuff</w>
sprung</w>
mund</w>
elaine</w>
bathro
offensive</w>
morous</w>
whoo
reyes</w>
bleak</w>
orchest
nations</w>
institute</w>
echoes</w>
daries</w>
airplane</w>
prof
improved</w>
grain</w>
unic
breathlessly</w>
theat
bats</w>
cians</w>
abraham</w>
yan</w>
cela
jacques</w>
confidently</w>
wits</w>
wit</w>
benches</w>
ripe</w>
pren
installed</w>
whistling</w>
travels</w>
latin</w>
asses</w>
humble</w>
bick
formu
upcoming</w>
rack
fireworks</w>
flou
venom</w>
dealer</w>
sickening</w>
gloved</w>
snack</w>
retire
angeli
slou
monstrous</w>
discipline</w>
adel</w>
cradling</w>
27</w>
virtu
hoste
haunting</w>
bulb</w>
reasonably</w>
weaker</w>
rubs</w>
pancakes</w>
pinch</w>
lino
jed</w>
dah
shack</w>
grandson</w>
honour</w>
enjoyment</w>
dots</w>
prone</w>
sauntered</w>
perplexed</w>
execution</w>
boomed</w>
attire</w>
achieved</w>
fished</w>
artem
subdued</w>
quickened</w>
nervousness</w>
mating</w>
cano
ani</w>
ppi</w>
curving</w>
cut
window
twists</w>
tels</w>
designs</w>
terrori
innocently</w>
connie</w>
clearer</w>
gid</w>
aer
explosive</w>
celaena</w>
responds</w>
pillars</w>
penthouse</w>
embedded</w>
considerably</w>
brittany</w>
bias</w>
whine</w>
plains</w>
estimate</w>
anged</w>
scented</w>
pock
paul
massage</w>
jerks</w>
inhabit
acheron</w>
sailor</w>
lil
assembly</w>
sucker</w>
invaded</w>
dral</w>
leader
grazed</w>
geons</w>
apprehension</w>
spies</w>
holidays</w>
hast
bracing</w>
stanley</w>
squeal</w>
hades</w>
gi</w>
domest
scolded</w>
mph</w>
ilyn</w>
curt</w>
calyp
essentially</w>
boundaries</w>
merchant</w>
draining</w>
cliffs</w>
veter
tas
rebellion</w>
sie
marking</w>
paled</w>
aby
permitted</w>
mee</w>
deke</w>
bowls</w>
scratches</w>
bounty</w>
unlock</w>
sincerity</w>
polly</w>
hel</w>
mair
equipped</w>
du</w>
intentionally</w>
african</w>
11
wilderness</w>
sket</w>
reeling</w>
incredulous</w>
strawberry</w>
noses</w>
mixing</w>
bureau</w>
alle</w>
tially</w>
biological</w>
surf</w>
staggering</w>
masked</w>
awfully</w>
skeleton</w>
mickey</w>
fearing</w>
enterpri
cory</w>
herbs</w>
terrace</w>
gash</w>
eldest</w>
acco</w>
unwanted</w>
librarian</w>
favourite</w>
taker</w>
artemis</w>
stadium</w>
taneous</w>
dancers</w>
dalinar</w>
vu
legitimate</w>
lex
falcon</w>
tob
shea</w>
eugene</w>
hangar</w>
booze</w>
swirl</w>
spied</w>
hose</w>
clasp</w>
balloon</w>
tley</w>
reacting</w>
leveled</w>
hm</w>
operative</w>
helm</w>
sings</w>
laden</w>
intersection</w>
opposed</w>
eo
dista
stu</w>
splashing</w>
lac</w>
bran</w>
pert</w>
mallory</w>
ux</w>
smashing</w>
outrage</w>
opinions</w>
investigating</w>
gale</w>
conduct</w>
alties</w>
whereabouts</w>
remembers</w>
punches</w>
popcorn</w>
allan</w>
trading</w>
uneven</w>
shielded</w>
overlooked</w>
mane</w>
introduction</w>
fright</w>
earances</w>
striped</w>
hatt
adorned</w>
zzi</w>
sneakers</w>
realizes</w>
laboratory</w>
defle
pope</w>
commission</w>
belinda</w>
prost
bard</w>
tattered</w>
alexa</w>
absorb</w>
vale</w>
slash</w>
skidded</w>
petals</w>
novels</w>
lits</w>
disapproval</w>
resume</w>
lend</w>
bailey</w>
restraint</w>
methods</w>
clawing</w>
paralyzed</w>
holl
fingered</w>
sheathed</w>
reassurance</w>
sylla
ambush</w>
theme</w>
rince
positively</w>
bubbling</w>
wrinkles</w>
rincewind</w>
semester</w>
ku</w>
housed</w>
closure</w>
blist
lobe</w>
examination</w>
radiating</w>
canada</w>
thest</w>
requires</w>
essly</w>
solitary</w>
ffles</w>
exclusive</w>
spiked</w>
divorced</w>
janice</w>
crook</w>
ocity</w>
steer</w>
d.c.</w>
preserve</w>
resign
periph
lens</w>
gina</w>
entit
reserve</w>
sutton</w>
situated</w>
perver
insistent</w>
bonds</w>
spikes</w>
sworth</w>
thicker</w>
harriet</w>
braid</w>
tingled</w>
spying</w>
inhale</w>
erily</w>
squared</w>
similar
ounts</w>
gin
watery</w>
scroll</w>
dyna
suspen
smash</w>
inserted</w>
integr
cathedral</w>
rover</w>
nathaniel</w>
earrings</w>
carmen</w>
abun
shrink</w>
tinted</w>
rides</w>
exhilar
stupidity</w>
industrial</w>
brynna</w>
dental</w>
tobacco</w>
paras
ird</w>
dick
adventures</w>
carmine</w>
horrific</w>
giddy</w>
sharpened</w>
feroci
trimmed</w>
reared</w>
ssi</w>
drick</w>
clothed</w>
smoldering</w>
agreeing</w>
slot</w>
zen
loosen</w>
sneer</w>
products</w>
silhouette</w>
bryce</w>
crouch</w>
coma</w>
alter
truthfully</w>
remarkably</w>
maiden</w>
groceries</w>
jett</w>
colorado</w>
activated</w>
rewarded</w>
hattan</w>
tori</w>
smoothing</w>
orial</w>
26</w>
bridget</w>
bind</w>
sparkle</w>
separating</w>
logne</w>
incredulously</w>
leadership</w>
hallways</w>
discovering</w>
overall</w>
resentment</w>
crouching</w>
blurry</w>
binocu
astically</w>
wavered</w>
skins</w>
masks</w>
fuse</w>
gem
cradle</w>
caller</w>
booked</w>
commend</w>
apartments</w>
stry
theresa</w>
redi
purred</w>
ttie</w>
slade</w>
potato</w>
stairway</w>
conspiracy</w>
weighing</w>
excru
williams</w>
resignation</w>
owl</w>
newest</w>
whirling</w>
snoring</w>
voring</w>
vion</w>
roller</w>
classm
olymp
febru
recognised</w>
maine</w>
excruci
soc
rimmed</w>
kettle</w>
cruel
capes</w>
calendar</w>
barren</w>
dubi
undone</w>
ico</w>
fins</w>
experiments</w>
mock
emphasis</w>
bable</w>
timo
hostage</w>
glimpsed</w>
sprawling</w>
retirement</w>
protector</w>
predicted</w>
sammy</w>
mme</w>
lever</w>
whereas</w>
tto</w>
croaked</w>
climax</w>
catholic</w>
space
fry</w>
continent</w>
february</w>
machin
lads</w>
constan
rippling</w>
stephan</w>
jewish</w>
eases</w>
saetan</w>
boil</w>
sedan</w>
pretti
extend</w>
viper</w>
top
leys</w>
flights</w>
comforted</w>
devastated</w>
uncontrollably</w>
soccer</w>
dexter</w>
swig</w>
flakes</w>
darlin</w>
adored</w>
tully</w>
cows</w>
parch
murmuring</w>
mutters</w>
melan
nuzzled</w>
expanded</w>
civilian</w>
flapping</w>
elemental</w>
tactics</w>
shaman</w>
phe</w>
dimmed</w>
illy</w>
audit
titi
pendant</w>
lution</w>
vera</w>
seeping</w>
scription</w>
tri</w>
nikolai</w>
ao</w>
sol</w>
kidnapping</w>
kansas</w>
manhattan</w>
dations</w>
barbie</w>
manly</w>
coop</w>
monitors</w>
editor</w>
cuffed</w>
crystals</w>
bees</w>
settlement</w>
investment</w>
sid
cathy</w>
shallan</w>
selection</w>
jeric
corinne</w>
budget</w>
strips</w>
mimic
carni
associate</w>
sprayed</w>
offrey</w>
notor
binoculars</w>
impr
evalle</w>
galen</w>
darkly</w>
twirled</w>
exhale</w>
caden</w>
zona</w>
poles</w>
locations</w>
ades</w>
acquaintance</w>
mustache</w>
winner</w>
roberts</w>
debbie</w>
cie</w>
quarter
oooo
involving</w>
compulsion</w>
tidy</w>
take
complaint</w>
arose</w>
sill</w>
refuge</w>
barbe
bail</w>
sinclair</w>
sieur</w>
manipulate</w>
iousness</w>
zac</w>
toll</w>
sputtered</w>
spat
oppre
dispu
feature</w>
crop</w>
niall</w>
mirrored</w>
blinds</w>
handcuffs</w>
global</w>
dominated</w>
penetrated</w>
y'
ortation</w>
kitty</w>
dimension</w>
basin</w>
rhea</w>
moore</w>
lander</w>
embroi
taryn</w>
relieve</w>
plush</w>
impending</w>
giants</w>
adol
hell
villa</w>
shan</w>
raymond</w>
agrees</w>
ripple</w>
phor
cack
amelie</w>
sessions</w>
sizes</w>
renee</w>
remy</w>
slie</w>
asphalt</w>
remotely</w>
fragments</w>
chattering</w>
spit
notch</w>
missions</w>
swipe</w>
pul</w>
mechanism</w>
kinca
grease</w>
descend</w>
wetness</w>
cel</w>
baffled</w>
tanya</w>
sven</w>
preacher</w>
planting</w>
stil
ponder</w>
floor
cease</w>
amat
wallace</w>
snagged</w>
responsibilities</w>
quote</w>
mbur
threads</w>
vase</w>
grey
bore
p.
cynthia</w>
wedged</w>
stakes</w>
16
yon</w>
uneasily</w>
caver
sidel
marker</w>
liner</w>
otto</w>
mers</w>
ez</w>
bloom</w>
leslie</w>
kelsey</w>
brisk</w>
roast</w>
edgar</w>
cove</w>
terra</w>
languages</w>
iah</w>
stuffing</w>
invented</w>
defiance</w>
bumping</w>
villages</w>
flock</w>
facebook</w>
ire
evenings</w>
depend</w>
kincaid</w>
vable</w>
mischievous</w>
dreaded</w>
cologne</w>
brightness</w>
litter</w>
ingredi
engineering</w>
vacuum</w>
enthusiastically</w>
replacement</w>
enforcement</w>
ilda</w>
allows</w>
braith</w>
umbrella</w>
orium</w>
monu
somber</w>
gauge</w>
disagree</w>
quizz
necks</w>
collin</w>
salvation</w>
plug</w>
fairies</w>
somethin'</w>
prodded</w>
weep</w>
dragon
risoned</w>
spher
insulted</w>
inappropriate</w>
deton
undo</w>
circuit</w>
channels</w>
severely</w>
scrub</w>
monsieur</w>
bu</w>
alists</w>
nova</w>
crunch</w>
bak
walt</w>
tish</w>
heavenly</w>
chart</w>
bluff</w>
madly</w>
crazed</w>
watering</w>
pitcher</w>
odle</w>
momentary</w>
gibb
deaf</w>
villagers</w>
travelled</w>
skeptical</w>
samples</w>
oval</w>
frey</w>
achment</w>
fies</w>
chores</w>
competent</w>
theories</w>
rust</w>
inspect</w>
dum
denim</w>
disper
scoop</w>
hostess</w>
footage</w>
starved</w>
sails</w>
orbit</w>
hale</w>
alma</w>
represent</w>
toed</w>
stible</w>
stead</w>
soul
pony</w>
investigator</w>
arizona</w>
peanut</w>
nox
idle</w>
bobbing</w>
ambi
archway</w>
declined</w>
webs</w>
supplied</w>
filing</w>
enters</w>
horde</w>
lefto
sock</w>
preparations</w>
coloni
slab</w>
oy</w>
harmony</w>
goof
counselor</w>
apples</w>
alistair</w>
hail</w>
chan</w>
acha
twinkling</w>
grit</w>
taped</w>
iona</w>
gold
exam</w>
doubtful</w>
incen
bonus</w>
ariel</w>
wretched</w>
snaked</w>
poorly</w>
micha
wailed</w>
refra
outed</w>
lasting</w>
corporation</w>
bau
photographer</w>
intercom</w>
habit
feat
engineer</w>
consume</w>
cheat</w>
ransom</w>
plunging</w>
28</w>
typing</w>
phantom</w>
employer</w>
armchair</w>
steadied</w>
huff</w>
graphic</w>
gifted</w>
sylvie</w>
schem
jabbed</w>
graveyard</w>
cereal</w>
wakes</w>
slams</w>
seness</w>
isana</w>
assessment</w>
bis</w>
amulet</w>
poly
prominent</w>
granddaughter</w>
cti
amazingly</w>
grunts</w>
developing</w>
chau
wright</w>
measures</w>
releases</w>
presentation</w>
marines</w>
twinge</w>
reasoned</w>
nailed</w>
attribu
quent
had
effortlessly</w>
screeching</w>
face
sma</w>
reappeared</w>
athletic</w>
alter</w>
rebels</w>
menting</w>
manuel</w>
imp</w>
grips</w>
disdain</w>
carto
jur
maging</w>
indians</w>
sector</w>
swarm</w>
permit</w>
charred</w>
kly</w>
reluctance</w>
29</w>
po</w>
insight</w>
camou
fumbling</w>
downright</w>
imprisoned</w>
housing</w>
hike</w>
graves</w>
camoufla
boa
stretches</w>
slut</w>
scaring</w>
enhanced</w>
solving</w>
risking</w>
glimmer</w>
calculated</w>
trauma</w>
hauling</w>
sling</w>
quentin</w>
intending</w>
targe
stuttered</w>
hugo</w>
y.</w>
chey
seeds</w>
lina</w>
physics</w>
ggins</w>
tainted</w>
phoned</w>
hue</w>
darkest</w>
nam</w>
endea
traded</w>
intensified</w>
remarks</w>
outburst</w>
pboard</w>
hitler</w>
dais</w>
beatrice</w>
lore</w>
gurg
caia</w>
arranging</w>
slippers</w>
necro
drip</w>
solely</w>
ramsey</w>
knowingly</w>
mab</w>
boulders</w>
e.</w>
clap</w>
canoe</w>
visu
splayed</w>
flur
churned</w>
maids</w>
explic
sory</w>
hence</w>
sliver</w>
punctu
gat
fallon</w>
chev
businesses</w>
timmy</w>
ania</w>
stitches</w>
privately</w>
colo
propose</w>
nightgown</w>
hydr
establish</w>
assumption</w>
riot</w>
passageway</w>
info</w>
sabrina</w>
motives</w>
implied</w>
bler</w>
congreg
phy
fey</w>
dishev
acres</w>
translated</w>
replacing</w>
dash
constable</w>
amidst</w>
ribbons</w>
solomon</w>
chanting</w>
sentinel</w>
like
shatter</w>
eh
drone</w>
atore</w>
dispen
squirm</w>
flavor</w>
braden</w>
legally</w>
explosions</w>
unsteady</w>
scholar
inevit
gent
edwin</w>
porcel
vicinity</w>
pacific</w>
loads</w>
doo</w>
primal</w>
vanish</w>
models</w>
hopping</w>
nibbled</w>
trum</w>
tier
monroe</w>
gratefully</w>
daze</w>
confined</w>
catalo
wesley</w>
scrunched</w>
elevators</w>
compromise</w>
bay
vee</w>
shyly</w>
dire</w>
35</w>
tumble</w>
tam</w>
j.
ditions</w>
wai
rid
sorting</w>
operator</w>
disconnected</w>
accusing</w>
thetically</w>
rushes</w>
adjac
jai</w>
triggered</w>
transmi
shielding</w>
foil</w>
faerie</w>
constri
chanc
savoring</w>
gabby</w>
ddler</w>
suppress</w>
mages</w>
crammed</w>
trudged</w>
readily</w>
diagno
collapsing</w>
fulfill</w>
adjacent</w>
seduce</w>
precision</w>
entertain</w>
amounts</w>
fitz
bbi
portions</w>
futile</w>
ernie</w>
eda</w>
creed</w>
rami
powering</w>
stationed</w>
protocol</w>
priest
rei</w>
annwyl</w>
scribbled</w>
joanna</w>
andal
til</w>
ark</w>
timothy</w>
hooks</w>
gig</w>
georgie</w>
bev</w>
mesmerized</w>
gps</w>
coyo
canal</w>
barefoot</w>
album</w>
technique</w>
notices</w>
meaningless</w>
intern
goth</w>
chandeli
grades</w>
chief
annu
aney</w>
porter</w>
crows</w>
sequence</w>
salvatore</w>
irritating</w>
cunning</w>
ppings</w>
nou
lime</w>
camping</w>
wail</w>
juan</w>
alina</w>
subconscious</w>
protruding</w>
unc
oce
hoarsely</w>
harvest</w>
disturb
complexion</w>
tattooed</w>
panels</w>
haras
flated</w>
passport</w>
moil</w>
hiking</w>
forgiving</w>
phenomen
honorable</w>
dict
depic
tremor</w>
gunshot</w>
gruff
adams</w>
whining</w>
suspects</w>
explored</w>
byes</w>
readable</w>
elliott</w>
delayed</w>
lucent</w>
incapable</w>
suzanne</w>
ssors</w>
ira
peach</w>
enraged</w>
traps</w>
telepath
rossed</w>
jogging</w>
collarbone</w>
ala
spade</w>
jog</w>
forefinger</w>
countess</w>
auburn</w>
chard</w>
ums</w>
association</w>
reflect</w>
puffy</w>
kurt</w>
arab
throb</w>
tana</w>
erect</w>
coloured</w>
treats</w>
cly
sensu
exposure</w>
delaney</w>
collided</w>
15
sierra</w>
exce
restroom</w>
plunge</w>
marc</w>
inhaling</w>
allo
wanda</w>
turmoil</w>
bil</w>
fael</w>
deu
danielle</w>
bicy
stump</w>
isi
chin
shrieking</w>
headboard</w>
elight</w>
kor</w>
32</w>
dominant</w>
combed</w>
burke</w>
seldon</w>
purposely</w>
ckage</w>
sketch</w>
seclu
jericho</w>
jeremi
farmhouse</w>
tegan</w>
savi
pler</w>
glide</w>
eter</w>
sei</w>
gosh</w>
circus</w>
arnie</w>
armored</w>
sated</w>
readed</w>
podium</w>
imaginable</w>
eyeballs</w>
arnold</w>
sickly</w>
enca
sizing</w>
reunion</w>
herit
sali</w>
gara</w>
bearded</w>
unusually</w>
skulls</w>
mocked</w>
kov</w>
peaks</w>
chim
catcher</w>
moro
meti
jews</w>
filtr
wa</w>
tricky</w>
scenery</w>
lunch
cd</w>
hamp
shake
scoo
orting</w>
farmers</w>
dodging</w>
plaster</w>
lilith</w>
harb
harv
vist</w>
glinted</w>
delivering</w>
quieter</w>
groom</w>
gaunt</w>
vibration</w>
shouldered</w>
pike</w>
nude</w>
luxurious</w>
commissi
writhed</w>
tipping</w>
ssion
haunt</w>
underwater</w>
subsequ
shepherd</w>
presently</w>
egw
desol
suzy</w>
narrow
maximum</w>
involuntarily</w>
glistened</w>
chi</w>
met
extensive</w>
taunting</w>
sapphire</w>
goddamned</w>
shin</w>
regrets</w>
noel</w>
munition</w>
inspiration</w>
horace</w>
egwene</w>
candidate</w>
uncovered</w>
thirties</w>
ridiculously</w>
toni</w>
sheepishly</w>
opportunities</w>
ante</w>
xander</w>
squeezes</w>
creak</w>
porcelain</w>
avalon</w>
ignited</w>
issa</w>
nicer</w>
heritage</w>
fish
fili
fanci
dders</w>
dazzling</w>
disintegr
customs</w>
robbed</w>
immortality</w>
ducking</w>
zers</w>
squatted</w>
silken</w>
flawless</w>
missile</w>
cheyenne</w>
ammunition</w>
watered</w>
ordeal</w>
orna
kneel</w>
anca</w>
yelped</w>
swiveled</w>
legends</w>
wy</w>
straighter</w>
kee</w>
carn
runway</w>
pines</w>
mundane</w>
creamy</w>
mity</w>
trek</w>
origin</w>
organs</w>
forests</w>
zander</w>
keepers</w>
forti
chills</w>
burnett</w>
grassy</w>
educated</w>
ttery</w>
p.</w>
hedge</w>
gareth</w>
recommend</w>
recalling</w>
persisted</w>
nipped</w>
ffe</w>
shampoo</w>
kel</w>
elephant</w>
don't</w>
corporal</w>
profession</w>
coolly</w>
animated</w>
triple</w>
deals</w>
cements</w>
toppled</w>
detectives</w>
vanilla</w>
s.com</w>
retire</w>
labeled</w>
garment</w>
drapes</w>
albe
stowed</w>
eries</w>
chilling</w>
trench</w>
rip
intellec
cably</w>
wagons</w>
gargo
conclusions</w>
fisher
beliefs</w>
tobias</w>
smirking</w>
lice</w>
garlic</w>
tendrils</w>
restore</w>
irresi
fuls</w>
equivalent</w>
zoo</w>
turn
alling</w>
wavy</w>
evacu
directing</w>
bloodied</w>
jayden</w>
dj</w>
taps</w>
suggestions</w>
devastating</w>
mines</w>
wired</w>
wedge</w>
jefferson</w>
rough
bouquet</w>
valid</w>
mourning</w>
look
dump
styx</w>
qualified</w>
frames</w>
verity</w>
skipping</w>
sarge</w>
opar
breathtaking</w>
privilege</w>
dential</w>
zan
sula</w>
masses</w>
girlfriends</w>
unmoving</w>
alizing</w>
vigorously</w>
ranger</w>
fax</w>
caul
spoil</w>
aide</w>
uncertainly</w>
figur
entitled</w>
dely</w>
yacht</w>
noi
mati
macc
judith</w>
flirt</w>
wrenching</w>
recognizing</w>
flute</w>
jeez</w>
tripping</w>
onship</w>
winks</w>
winged</w>
vows</w>
thrashing</w>
thanking</w>
objective</w>
tro</w>
survey</w>
ican</w>
chrissy</w>
australia</w>
ruining</w>
eag
worms</w>
unbuttoned</w>
jelly</w>
disrup
creaking</w>
rad
lantly</w>
rags</w>
missy</w>
butcher</w>
perrin</w>
vanity</w>
hara</w>
flanked</w>
brenna</w>
saliva</w>
rafael</w>
frighten</w>
scrutin
plugged</w>
grun
forth
technical</w>
siness</w>
cleaner</w>
shredded</w>
rs</w>
mimi</w>
dangers</w>
denti
mortimer</w>
kelsier</w>
hon</w>
application</w>
greed</w>
ggers</w>
fen</w>
errand</w>
addiction</w>
soared</w>
iciency</w>
disappoint</w>
candl
precar
logically</w>
hormones</w>
beacon</w>
operated</w>
limit
lant</w>
hillside</w>
approximately</w>
splattered</w>
multi</w>
breach</w>
pically</w>
obscured</w>
josephine</w>
footprints</w>
favors</w>
boone</w>
sme
llian</w>
satan</w>
resisting</w>
parag
pson</w>
m'
inhabitants</w>
ases</w>
jacky</w>
screech</w>
jeopar
artists</w>
unsettling</w>
retali
cycles</w>
cult</w>
atre
vertical</w>
scouts</w>
swat
regin
noticeable</w>
irrational</w>
establishment</w>
erous</w>
elected</w>
­­
darn</w>
compass</w>
mischief</w>
imposing</w>
cooperate</w>
charms</w>
reggie</w>
dunno</w>
defended</w>
charle
therapist</w>
potentially</w>
ddington</w>
thundered</w>
goals</w>
glee</w>
frigid</w>
soak</w>
conduc
bred</w>
sob
sleeved</w>
lever
courts</w>
celebrity</w>
cann
advancing</w>
ruth
potion</w>
ord</w>
lulu</w>
gambling</w>
borders</w>
rial</w>
campbell</w>
athon</w>
torna
medics</w>
tenth</w>
intimidated</w>
plaza</w>
blues</w>
alas
ramp
flailing</w>
crossbow</w>
comforter</w>
sprint</w>
scattering</w>
ramon</w>
parchment</w>
keira</w>
grind</w>
boobs</w>
selec
pursued</w>
fee</w>
carpe
kathleen</w>
bully</w>
nigel</w>
eaves
pitiful</w>
rival</w>
reversed</w>
meo</w>
boxer</w>
sound
peel</w>
garments</w>
delightful</w>
adver
wall
gis
associates</w>
psycho</w>
anyways</w>
fathom</w>
adam
cubic
weekly</w>
wad</w>
murderous</w>
stacey</w>
pigeon</w>
election</w>
dougal</w>
cinna
bluntly</w>
assaulted</w>
shaven</w>
proclaimed</w>
oblivion</w>
solic
posters</w>
defensively</w>
sery</w>
sentences</w>
relations</w>
duffel</w>
dez
cardin
tape
scramble</w>
maneuvered</w>
lenny</w>
erica</w>
bia</w>
albeit</w>
tative</w>
powerless</w>
forged</w>
crunching</w>
bangs</w>
alar
shrou
maintaining</w>
ensu
despised</w>
xan
structures</w>
rick
discreet</w>
archa
sloppy</w>
port
mahog
frustrating</w>
ampli
uts</w>
uk</w>
magi
mahogany</w>
bachelor</w>
vinci
miserably</w>
maccon</w>
lls</w>
dreamer</w>
tently</w>
pursuing</w>
pigs</w>
stony</w>
likewise</w>
immortals</w>
hum
disli
stripping</w>
squat</w>
skyler</w>
icking</w>
cinnamon</w>
stupidly</w>
righteous</w>
confines</w>
academic</w>
sinks</w>
hoisted</w>
conspic
colleague</w>
yman</w>
rooted</w>
fest</w>
daim
properties</w>
asian</w>
tackle</w>
reginald</w>
guel</w>
dc</w>
veted</w>
recla
resolu
puck
leisurely</w>
mathias</w>
grounded</w>
vous</w>
limped</w>
depressing</w>
advise</w>
----------------
yearning</w>
tware</w>
rosy</w>
distorted</w>
washer</w>
roamed</w>
cured</w>
was
twinkle</w>
infiltr
litted</w>
bulky</w>
vane</w>
embas
anche</w>
physician</w>
mik</w>
blasting</w>
vina</w>
radiation</w>
melancho
mathemat
cana
cunt</w>
devoured</w>
ingo</w>
celebrating</w>
prosper
titles</w>
possessions</w>
civilized</w>
alls</w>
nearing</w>
nish</w>
gover</w>
visc
gruffly</w>
montgom
hee
familiarity</w>
undeni
nix</w>
broadcast</w>
meaningful</w>
quilt</w>
egyp
discou
alerted</w>
revolver</w>
protests</w>
astron
nursery</w>
accommodate</w>
newcom
leaking</w>
conditioning</w>
bria</w>
tequ
eyel
pays</w>
su</w>
roaming</w>
hallucin
carrier</w>
baltha
averted</w>
whirl
stick
goblin</w>
onda</w>
eighth</w>
apprentice</w>
tequila</w>
brink</w>
unzipped</w>
thompson</w>
unleashed</w>
liness</w>
lists</w>
bex</w>
och</w>
harlow</w>
handwriting</w>
ainsley</w>
mumbling</w>
womb</w>
thren</w>
secrecy</w>
freezer</w>
slumber</w>
partial</w>
mentioning</w>
gem</w>
bulge</w>
testim
gravely</w>
phis</w>
uniformed</w>
radiant</w>
etti</w>
dles</w>
baking</w>
tink
kh
husbands</w>
angling</w>
trolls</w>
slanted</w>
lenses</w>
aph
yann</w>
structive</w>
quieted</w>
pantry</w>
economy</w>
cone</w>
broadly</w>
33</w>
require
matthias</w>
infan
chalk</w>
ulate</w>
octa
alig
wie</w>
transportation</w>
theatre</w>
scares</w>
raspy</w>
prophet</w>
liest</w>
rustle</w>
maurice</w>
kol
conventi
neglected</w>
inless</w>
gansey</w>
bikes</w>
weigh</w>
fulfilled</w>
boredom</w>
vinnie</w>
thryn</w>
spa</w>
rectan
legacy</w>
elli</w>
charcoal</w>
appearances</w>
wailing</w>
triangle</w>
stang</w>
respectable</w>
mindless</w>
lava</w>
disoriented</w>
ude</w>
maris</w>
software</w>
peacefully</w>
fu</w>
devotion</w>
speculation</w>
rectangular</w>
refin
illuminating</w>
consent</w>
brotherhood</w>
alix</w>
actors</w>
vulnerability</w>
hasty</w>
update</w>
trenton</w>
sham</w>
medic</w>
largely</w>
cooling</w>
battling</w>
sied</w>
sexually</w>
aimee</w>
booming</w>
sefully</w>
percepti
groo
viet</w>
looped</w>
hurricane</w>
holic</w>
bethel</w>
ssen</w>
laces</w>
brooding</w>
serene</w>
turous</w>
spire</w>
scandal</w>
guaranteed</w>
foliage</w>
umm</w>
dusted</w>
reti
succession</w>
serpent</w>
behaved</w>
suggests</w>
chopper</w>
14
peers</w>
nonchal
lindsey</w>
functioning</w>
erian</w>
cornered</w>
clemen
ooh</w>
foe</w>
probing</w>
jenkins</w>
dre</w>
tatiana</w>
natasha</w>
freckles</w>
caravan</w>
brie
blooded</w>
testi
lucius</w>
lifemate</w>
homel
swearing</w>
lis
chel</w>
camille</w>
tinged</w>
flu</w>
domain</w>
wreckage</w>
plumme
penetrating</w>
vigil
brat</w>
dv
clears</w>
perch</w>
juven
jillian</w>
ida
crews</w>
sazed</w>
fame</w>
sure
jagu
hack</w>
gears</w>
penetrate</w>
lary</w>
buster</w>
squirming</w>
shimmer</w>
deception</w>
typically</w>
maeve</w>
ena
barrels</w>
stryker</w>
distinctly</w>
devlin</w>
weathered</w>
saul</w>
transition</w>
noxious</w>
addressing</w>
instruction</w>
hardwood</w>
emails</w>
breathes</w>
theft</w>
sanders</w>
eerily</w>
wholly</w>
tyrion</w>
pasta</w>
lunatic</w>
formid
accelerated</w>
pumps</w>
contorted</w>
unreadable</w>
droplets</w>
baggage</w>
mists</w>
furry</w>
erased</w>
ceremon
cancel</w>
intriguing</w>
attackers</w>
rash</w>
drade</w>
daniels</w>
creator</w>
lays</w>
dakota</w>
bunker</w>
manicured</w>
ireland</w>
expanding</w>
domestic</w>
cube</w>
wrench</w>
weave</w>
whisky</w>
tomas</w>
lark</w>
irre
atro
ambrose</w>
tailed</w>
dently</w>
barracks</w>
ousine</w>
japan</w>
swooped</w>
snee
mcbride</w>
davi
d'ar
undid</w>
limousine</w>
dolph</w>
willie</w>
transported</w>
select</w>
gut
eats</w>
rammed</w>
mulated</w>
hipp
brake</w>
watchful</w>
rendered</w>
nedra</w>
memorial</w>
chests</w>
auction</w>
sap</w>
bened
abused</w>
debated</w>
symptoms</w>
rer
predicament</w>
ceo</w>
brandt</w>
vicky</w>
oux</w>
broom</w>
struggles</w>
specting</w>
objected</w>
l.a.</w>
crumbled</w>
independence</w>
taunted</w>
materialized</w>
derrick</w>
poppy</w>
plaid</w>
excruciating</w>
miami</w>
germans</w>
facade</w>
valen
resurrec
impas
facilities</w>
cracy</w>
unpredictable</w>
grid</w>
taxes</w>
approaches</w>
lighten</w>
entryway</w>
sniper</w>
morrison</w>
leaked</w>
disposal</w>
celyn</w>
atlantic</w>
securely</w>
perceived</w>
moron</w>
fanned</w>
seph
sadi
mph
labored</w>
acquainted</w>
patty</w>
immer
cism</w>
celess</w>
voiced</w>
threaded</w>
oft</w>
clipboard</w>
clatter</w>
andro
ut
statements</w>
slices</w>
mckay</w>
hardness</w>
dile
organic</w>
seize</w>
sacrificed</w>
illustr
ghan</w>
ril</w>
beep</w>
rugged</w>
clone</w>
soften</w>
vigor</w>
presume</w>
identification</w>
goblins</w>
dgingly</w>
bubbled</w>
brute</w>
spook</w>
nab
dwind
bbly</w>
terrorists</w>
tab</w>
lode
jackets</w>
intoxicating</w>
dismiss</w>
unfa
mort
formally</w>
employment</w>
ete</w>
spectacle</w>
monitoring</w>
chair
recoiled</w>
turtle</w>
refer</w>
overgrown</w>
midday</w>
sullen</w>
mumble</w>
delle</w>
authenti
entity</w>
cast
anders</w>
stalls</w>
stallion</w>
marqu
devoid</w>
caster</w>
favour</w>
encies</w>
volcan
surround</w>
pp</w>
mysteries</w>
hamilton</w>
accord</w>
shadowh
formidable</w>
coral</w>
spins</w>
witch
scholar</w>
alea</w>
alcove</w>
producing</w>
ohi
instructor</w>
flurry</w>
tamara</w>
shaggy</w>
programmed</w>
persistent</w>
nagging</w>
machinery</w>
incoming</w>
flips</w>
31</w>
itors</w>
cruelty</w>
hun</w>
hotels</w>
expedition</w>
dise
jose</w>
fingertip</w>
fetched</w>
crucial</w>
bein</w>
newt</w>
frequency</w>
devin</w>
bianca</w>
menace</w>
subway</w>
gloomy</w>
glinting</w>
dolls</w>
businessman</w>
tractor</w>
shuffle</w>
expand</w>
counsel</w>
refreshing</w>
hounds</w>
submit</w>
buds</w>
aya</w>
wolfe</w>
roam</w>
republic</w>
mination</w>
jone
chasti
thorpe</w>
embassy</w>
dimples</w>
webb</w>
alo</w>
sight
cringe</w>
propri
haun
solitude</w>
offspring</w>
irresistible</w>
wipes</w>
chisel
deemed</w>
stamp</w>
merit</w>
mascar
cav
aha</w>
lookin</w>
coursing</w>
feeble</w>
disheveled</w>
38</w>
sonia</w>
heady</w>
defec
clyde</w>
60</w>
smirks</w>
hungri
hoods</w>
dass</w>
dth</w>
uri</w>
shadowhun
separation</w>
outdoor</w>
compliments</w>
viet
scrutiny</w>
outlined</w>
kim
glassy</w>
flaring</w>
whites</w>
shape
renia</w>
martial</w>
kathryn</w>
minated</w>
cultural</w>
arianna</w>
riages</w>
murky</w>
microwave</w>
assets</w>
persuaded</w>
embarrass</w>
certific
angular</w>
vessels</w>
hambur
fiance</w>
willy</w>
vik</w>
switching</w>
diss
dair</w>
armour</w>
steely</w>
splendid</w>
rummaged</w>
protectively</w>
prying</w>
deeds</w>
clattered</w>
abyss</w>
wisely</w>
vat
demise</w>
beverly</w>
scored</w>
contentment</w>
consequence</w>
bodyguards</w>
ammo</w>
shan
reporting</w>
interviews</w>
hony</w>
declaration</w>
cooled</w>
universal</w>
orgas
lengths</w>
auto</w>
nudge</w>
jeremiah</w>
heightened</w>
alfred</w>
ample</w>
coursed</w>
ami
vocal</w>
spotlight</w>
mining</w>
functions</w>
settles</w>
existent</w>
leop
kiara</w>
gypsy</w>
continually</w>
charley</w>
blog</w>
ashed</w>
extension</w>
dite</w>
clown</w>
calculating</w>
unconsciously</w>
scribed</w>
polgara</w>
horizon
grote
cratic</w>
bunched</w>
squirrel</w>
speare</w>
lyrics</w>
greens</w>
satchel</w>
horny</w>
grazing</w>
betsy</w>
bap
richards</w>
keting</w>
insect</w>
mississi
mici
beige</w>
senseless</w>
qualities</w>
lowest</w>
lovingly</w>
adjust
aim
tosses</w>
inability</w>
earshot</w>
baxter</w>
lapping</w>
handles</w>
stomping</w>
paste</w>
onous</w>
clarence</w>
bryson</w>
rupert</w>
bottoms</w>
workout</w>
smacking</w>
eliminate</w>
calves</w>
pump
palp
glares</w>
garrison</w>
lucifer</w>
leness</w>
finch</w>
shrin
purposefully</w>
cadence</w>
herb</w>
gill</w>
easiest</w>
deva
specim
scholarship</w>
mugs</w>
dashing</w>
complaints</w>
rumpled</w>
hooking</w>
gagged</w>
y'</w>
recognizable</w>
malone</w>
trin
outfits</w>
matilda</w>
hollered</w>
displaying</w>
disguised</w>
chancel
vana</w>
stubbornly</w>
slat
fragr
classmates</w>
surging</w>
shakespeare</w>
kyrie</w>
jolene</w>
heed</w>
understandable</w>
tdown</w>
keller</w>
hor</w>
bowling</w>
yoga</w>
processing</w>
maryann</w>
mk
kitch
ingredients</w>
conco
tyr
slate</w>
restrain</w>
karou</w>
fluore
destri
decker</w>
russians</w>
envisi
bax</w>
thesis</w>
dual</w>
deposited</w>
carpath
betraying</w>
attendance</w>
2014</w>
slayer</w>
icity</w>
ene
dearest</w>
posit</w>
wls</w>
appalled</w>
sander</w>
platter</w>
opted</w>
etary</w>
saff
molten</w>
mascara</w>
keely</w>
expression
quirked</w>
playground</w>
morton</w>
bumper</w>
betting</w>
voy</w>
tele</w>
sso</w>
maddox</w>
electro
dank</w>
chop</w>
agonizing</w>
wrecked</w>
tickling</w>
ohio</w>
goggles</w>
lemon
kore
coast
tormented</w>
noff</w>
clock
pried</w>
mississippi</w>
magically</w>
isle</w>
alab
aki
tropical</w>
bunny</w>
unstable</w>
tendency</w>
reddish</w>
israel</w>
eti
belts</w>
bakery</w>
melancholy</w>
itz</w>
bean</w>
nolds</w>
existing</w>
rusted</w>
freshman</w>
condoms</w>
aids</w>
two
marcia</w>
actress</w>
splintered</w>
lamb</w>
glowered</w>
envi
egy
xton</w>
twirling</w>
stating</w>
billionaire</w>
attrac
uns</w>
squarely</w>
epic</w>
remini
mop</w>
moons</w>
idaho</w>
eagerness</w>
dog
withdraw</w>
texting</w>
missive</w>
tread</w>
salary</w>
homici
ckers</w>
spain</w>
edi
clave</w>
scaven
reynolds</w>
justify</w>
cloudy</w>
carpathian</w>
tourna
pint</w>
seared</w>
hinted</w>
disconcer
dino
converted</w>
cloaked</w>
mice</w>
dric</w>
delia</w>
sai</w>
recorder</w>
principle</w>
needy</w>
i.
feigned</w>
fy
dier</w>
wrea
time
serenity</w>
reservation</w>
hir</w>
earthquake</w>
travelers</w>
programs</w>
penn
gob
entertained</w>
dew</w>
dashboard</w>
brittle</w>
wobbled</w>
jeffrey</w>
triumphant</w>
ordinarily</w>
mbed</w>
maureen</w>
hyde</w>
spacious</w>
readers</w>
kas</w>
gaius</w>
flattered</w>
cet</w>
accompan
whiff</w>
subst
courthouse</w>
chancellor</w>
banana</w>
anky</w>
virgil</w>
understatement</w>
tresses</w>
swallows</w>
shore
seduction</w>
insulting</w>
corps</w>
manual</w>
liv
distressed</w>
bridges</w>
saluted</w>
meticul
banner</w>
zil</w>
perception</w>
lizard</w>
esp
tribes</w>
oni</w>
ducks</w>
blinks</w>
sheridan</w>
egypt</w>
sockets</w>
num</w>
marveled</w>
az</w>
thugs</w>
soaring</w>
politicians</w>
montana</w>
alistic</w>
suspecting</w>
spagh
prece
kristen</w>
sheepish</w>
indifferent</w>
anticipating</w>
surfaced</w>
organ</w>
flannel</w>
dumbfounded</w>
blended</w>
simpli
syringe</w>
syn</w>
das</w>
craned</w>
bob
behold</w>
shrank</w>
portland</w>
itlin</w>
stooped</w>
jacqu
doo
bland</w>
bends</w>
licks</w>
strolling</w>
spice</w>
plead</w>
pout</w>
kiel</w>
hybri
excee
belonging</w>
pup</w>
nip</w>
duti
disk</w>
molecu
medieval</w>
implications</w>
comrades</w>
ballet</w>
tending</w>
lousy</w>
camps</w>
'bout</w>
sives</w>
mold</w>
resident</w>
frederick</w>
deposit</w>
tino</w>
tise</w>
realistic</w>
pristine</w>
yawning</w>
floral</w>
surrendered</w>
dwelling</w>
common
archy</w>
expectation</w>
byl</w>
acious</w>
tiled</w>
kingdoms</w>
gettin</w>
advertising</w>
vla
sunken</w>
rosalie</w>
riad</w>
leverage</w>
interference</w>
fours</w>
fifties</w>
translucent</w>
regul
perspir
requests</w>
pistols</w>
catastro
apologetically</w>
submission</w>
inevitably</w>
prote
evaporated</w>
rez</w>
quarry</w>
crops</w>
barriers</w>
rhett</w>
edo</w>
chickens</w>
chace</w>
caref
inspecting</w>
houston</w>
dis</w>
victorian</w>
nar</w>
itty</w>
grandchildren</w>
wafted</w>
jing
grunting</w>
apologizing</w>
knocks</w>
electron
slithered</w>
distru
desks</w>
uish</w>
perse
handbag</w>
depri
barred</w>
warner</w>
heath</w>
drum
conso
carefree</w>
roused</w>
promotion</w>
joints</w>
homeland</w>
gracious</w>
talons</w>
pivoted</w>
medal
cavalry</w>
sensors</w>
productive</w>
ppa</w>
aspects</w>
muck</w>
spreads</w>
scorched</w>
halo</w>
crane</w>
thand</w>
spaghetti</w>
recipe</w>
orderly</w>
aspen</w>
towered</w>
reassur
prices</w>
grady</w>
dismounted</w>
dearly</w>
bonded</w>
anor
magician</w>
deliri
clicks</w>
testimony</w>
manipulated</w>
ii
friction</w>
behaviour</w>
ae</w>
preva
devour</w>
voyage</w>
vs</w>
tailored</w>
invading</w>
horr
debating</w>
trays</w>
crunched</w>
containers</w>
jump
homemade</w>
deceased</w>
cloa
ctors</w>
tling</w>
scissors</w>
breeding</w>
badass</w>
myra</w>
expenses</w>
culti
lann</w>
engra
addy</w>
polis</w>
pics</w>
nothing
jit
ggin</w>
zier</w>
stifling</w>
sak
195
burly</w>
mouth
expertise</w>
wiser</w>
seriousness</w>
literature</w>
unnerving</w>
surg
soph
shutters</w>
pooled</w>
ceil
anners</w>
torturing</w>
rig</w>
occupation</w>
massaging</w>
slits</w>
jets</w>
incar
candlelight</w>
........
ttish</w>
katrina</w>
hardware</w>
scow</w>
reservations</w>
participate</w>
minimal</w>
wins</w>
mulus</w>
marion</w>
charleston</w>
bbish</w>
ark
zev</w>
virginity</w>
soviet</w>
filter</w>
s.
minus</w>
junction</w>
hilarious</w>
pouted</w>
sburg</w>
rous</w>
hints</w>
gowns</w>
florence</w>
shooter</w>
bapti
sentiment</w>
pits</w>
lei</w>
inn
walkers</w>
obscure</w>
curtly</w>
alexand
~~~</w>
pli
mort</w>
loaf</w>
emmie</w>
diness</w>
brethren</w>
balthazar</w>
treacherous</w>
icles</w>
burial</w>
resulted</w>
dizziness</w>
shaun</w>
royalty</w>
rha
nightfall</w>
maximus</w>
explanations</w>
andrews</w>
humiliated</w>
gade</w>
pedal</w>
mesh</w>
interruption</w>
burgh</w>
ulties</w>
dreamy</w>
stages</w>
peggy</w>
mits</w>
introductions</w>
intments</w>
cedar</w>
calla
paula</w>
mounting</w>
disen
administration</w>
accusations</w>
reno
fueled</w>
billie</w>
sidhe</w>
mkvist</w>
trot</w>
snowy</w>
jaguar</w>
drac
motherfucker</w>
ddle
frances</w>
eably</w>
converse</w>
imminent</w>
awakening</w>
ronia</w>
ronin</w>
icals</w>
interstate</w>
alaric</w>
unfinished</w>
hover</w>
emanating</w>
cricket</w>
cords</w>
agitation</w>
scraps</w>
maxwell</w>
kimber</w>
freeing</w>
distrau
blaine</w>
sheltered</w>
pedestri
jaxon</w>
currents</w>
squaw
briefing</w>
13
spu
gushed</w>
ferocious</w>
chaotic</w>
bucked</w>
view
sweetest</w>
scottish</w>
prince
drawings</w>
assignments</w>
alta
sophronia</w>
shhh</w>
gou
compete</w>
aller
47</w>
shreds</w>
eclip
workshop</w>
shock
kass</w>
delta</w>
aa</w>
distraught</w>
percy</w>
gray
flask</w>
finishes</w>
codes</w>
tous
lach
butto
brim</w>
endelle</w>
dived</w>
500</w>
tricked</w>
reapers</w>
occurren
garth</w>
exor
apocalyp
particles</w>
ock</w>
montgomery</w>
madman</w>
grenade</w>
seething</w>
mustang</w>
immac
counc
contracts</w>
contemplate</w>
conservative</w>
convey</w>
revul
ppe</w>
flattery</w>
adul
asia</w>
stoop</w>
flops</w>
banished</w>
whimpering</w>
inhi
compelling</w>
teller</w>
plank</w>
gateway</w>
defiant</w>
breaker</w>
stocked</w>
korsten</w>
rift</w>
pilots</w>
pathway</w>
kon
slaps</w>
lous</w>
kine
jab</w>
evolution</w>
scorpi
bulged</w>
relate</w>
blomkvist</w>
warnings</w>
rhythmic</w>
palpable</w>
iter</w>
annual</w>
unsettled</w>
priestess</w>
obtain</w>
fo</w>
courses</w>
skin
lliver</w>
swiss</w>
revulsion</w>
logo</w>
judd</w>
demonic</w>
crappy</w>
wriggled</w>
thinner</w>
shipping</w>
musicians</w>
horrors</w>
gence</w>
tators</w>
restlessly</w>
mmie</w>
kevan</w>
distaste</w>
worldly</w>
unicorn</w>
jacobs</w>
elic
chman</w>
volunteers</w>
stash</w>
sissy</w>
scon
induced</w>
incidents</w>
encased</w>
siege</w>
flapped</w>
describing</w>
anniversary</w>
tornado</w>
thorn
peterson</w>
bodice</w>
bedding</w>
winking</w>
text
stockings</w>
itching</w>
indulge</w>
hunch</w>
colours</w>
valet</w>
jutting</w>
grate</w>
duct</w>
puppet</w>
fundam
batteries</w>
affor
amar
welling</w>
etc</w>
decipher</w>
straddling</w>
excess</w>
cardi
phia</w>
juicy</w>
fingerprints</w>
blaring</w>
gard
gnar
carla</w>
addicted</w>
ika</w>
dical</w>
reign</w>
miguel</w>
grati
forbid</w>
erated</w>
big
narr
massaged</w>
fusion</w>
kil</w>
respective</w>
onward</w>
lattering</w>
dev</w>
define</w>
danni</w>
transmission</w>
thinned</w>
reddened</w>
turner</w>
irrelevant</w>
applying</w>
dina</w>
cronus</w>
tugs</w>
philosophi
pant</w>
datab
counten
conta
ce'
pearls</w>
memphis</w>
kian</w>
jock</w>
glenn</w>
erratic</w>
breeches</w>
darts</w>
alarming</w>
aggression</w>
showers</w>
paranor
oman</w>
flora</w>
chiseled</w>
ox</w>
lowly</w>
limin
gulf</w>
experts</w>
announcing</w>
iso
hammond</w>
expressionless</w>
deo</w>
challenges</w>
thickly</w>
password</w>
mindy</w>
lob
2013</w>
vat</w>
explosives</w>
bm
where
refusal</w>
economic</w>
bodied</w>
bearings</w>
worth
respecting</w>
rhi
plantation</w>
khan</w>
paved</w>
milo</w>
lica</w>
harlin</w>
forwards</w>
flexing</w>
cylinder</w>
virtue</w>
elevated</w>
duel</w>
trials</w>
savag
mila</w>
guttural</w>
lengthy</w>
pricked</w>
savor</w>
phers</w>
priceless</w>
edness</w>
augu
ruck
nothingness</w>
jame
fragrance</w>
foggy</w>
endlessly</w>
nobles</w>
curtis</w>
trust
andro</w>
spelled</w>
oline</w>
matted</w>
indifference</w>
ffins</w>
defiantly</w>
crusted</w>
tomato</w>
obligation</w>
nicky</w>
mantra</w>
glitter</w>
cruz</w>
ce'nedra</w>
ales</w>
insults</w>
smond</w>
rema</w>
lillian</w>
graph</w>
expertly</w>
zations</w>
weather
veered</w>
pens</w>
outrageous</w>
nikolas</w>
napo
georgi
dances</w>
bustling</w>
aun
thened</w>
suffocating</w>
underside</w>
spraying</w>
extin
colling</w>
cari
nephili
lovemaking</w>
lanes</w>
furnished</w>
talkin</w>
sculpted</w>
marian</w>
clasping</w>
barrett</w>
sufficiently</w>
stout</w>
slaughtered</w>
iti</w>
grated</w>
flexi
chez</w>
biscuits</w>
armand</w>
wheat</w>
random
hesitating</w>
carts</w>
bourbon</w>
tapes</w>
shrouded</w>
salander</w>
sword
periods</w>
intuition</w>
designated</w>
artifacts</w>
tah</w>
ravine</w>
notepad</w>
legendary</w>
alise</w>
alaska</w>
straddled</w>
edmund</w>
disobe
arek</w>
sausage</w>
question
oncoming</w>
johnnie</w>
generated</w>
briggs</w>
translation</w>
secluded</w>
gwendo
ulf</w>
pats</w>
occupants</w>
malik</w>
juliana</w>
couches</w>
yielding</w>
sibyl</w>
rooftop</w>
cos</w>
assurance</w>
wire
misses</w>
closeness</w>
whole
plotting</w>
picturing</w>
insignificant</w>
horrid</w>
eptive</w>
clarified</w>
stepfather</w>
pondering</w>
insisting</w>
christina</w>
accidents</w>
nudging</w>
dumping</w>
coldness</w>
beak</w>
scores</w>
enig
elias</w>
depart</w>
dai</w>
caffe
jocelyn</w>
goofy</w>
tatum</w>
s'
milling</w>
laylen</w>
inadver
award</w>
paddle</w>
dwarves</w>
dion</w>
brewing</w>
throats</w>
fainted</w>
dishon
carnival</w>
bertie</w>
viciously</w>
secondary</w>
lounging</w>
gloss</w>
foren
crescent</w>
signaling</w>
securing</w>
l.</w>
extravag
ascended</w>
militia</w>
emmy</w>
dell</w>
puke</w>
mortified</w>
inventory</w>
hacked</w>
desirable</w>
itious</w>
dreamt</w>
blackmail</w>
unbelievably</w>
reject</w>
mete
genes</w>
cath</w>
strangest</w>
polo</w>
doris</w>
auntie</w>
nephilim</w>
creeps</w>
brad
balancing</w>
anka</w>
recommended</w>
phila
pane</w>
mole</w>
hockey</w>
blossom</w>
benji</w>
admoni
declare</w>
texture</w>
ruling</w>
repeats</w>
queens</w>
piped</w>
jonesy</w>
amic</w>
restraints</w>
civilians</w>
alternate</w>
mbler</w>
indignation</w>
candi</w>
centi
wobbly</w>
stereo</w>
sec</w>
rake</w>
ership</w>
weston</w>
teles
justine</w>
includes</w>
intake</w>
baley</w>
alas</w>
stormy</w>
o.</w>
homecoming</w>
chopped</w>
80</w>
wool
eri</w>
stries</w>
prentice</w>
crumbs</w>
benson</w>
propelled</w>
clum
arches</w>
ripples</w>
ingham</w>
fian
alarms</w>
veiled</w>
constitu
complied</w>
alexandria</w>
thumbed</w>
rune</w>
philadel
perked</w>
mael</w>
forties</w>
favored</w>
buffet</w>
tierney</w>
slurred</w>
jars</w>
inhabited</w>
freaks</w>
coarse</w>
zeal
tame</w>
stifle</w>
schoo
mast</w>
freeway</w>
bewilder
throng</w>
subtly</w>
hagg
aggrav
briefs</w>
una</w>
techniques</w>
madoc</w>
isolation</w>
intimately</w>
dumpster</w>
casts</w>
ables</w>
undressed</w>
impl
convent</w>
breakdown</w>
spar</w>
progressed</w>
entation</w>
east
chasm</w>
youthful</w>
monks</w>
minions</w>
linking</w>
jana</w>
factly</w>
begin
anchored</w>
geoffrey</w>
feat</w>
unear
supervisor</w>
snug</w>
occupy</w>
mikey</w>
surveying</w>
nico
mbering</w>
ei</w>
banter</w>
shoves</w>
repay</w>
lov</w>
gg</w>
cum</w>
alcoholic</w>
abstr
nox</w>
nen
alleyway</w>
faintest</w>
eaded</w>
survivor</w>
heartache</w>
esman</w>
copied</w>
acute</w>
philadelphia</w>
earne
disc</w>
dil</w>
decline</w>
carving</w>
untied</w>
steadying</w>
mory</w>
vick
tages</w>
rendez
motivation</w>
casket</w>
repro
jina</w>
brook
stashed</w>
embers</w>
swarmed</w>
loses</w>
lindsay</w>
dez</w>
stewart</w>
impe
citadel</w>
upro
stalk</w>
shares</w>
sed
aters</w>
sharper</w>
procession</w>
landers</w>
iciously</w>
exits</w>
rubbish</w>
med
truths</w>
peck</w>
i'l</w>
cheryl</w>
stanton</w>
nets</w>
greet
forsa
toddler</w>
responses</w>
preced
margie</w>
evolent</w>
anat
winter
whis
skimming</w>
shuts</w>
sabine</w>
paranoia</w>
parks</w>
ons
milky</w>
bookstore</w>
auditorium</w>
aliah</w>
psychiatri
offend</w>
hitch</w>
higgins</w>
zoomed</w>
wardness</w>
scab
leopard</w>
kry
smat
knitting</w>
boyfriends</w>
vens</w>
scum</w>
gruesome</w>
camden</w>
twinkled</w>
stealth</w>
itous</w>
dry
undercover</w>
tiago</w>
refuses</w>
psychological</w>
nana</w>
fooling</w>
firelight</w>
beaded</w>
ietta</w>
hiring</w>
dship</w>
bbs</w>
trickling</w>
tempered</w>
sera</w>
screetly</w>
savior</w>
missiles</w>
flank</w>
dilemma</w>
regina</w>
farms</w>
cohen</w>
sey
ol'</w>
moscow</w>
gaps</w>
aftermath</w>
tactic</w>
fluorescent</w>
earlobe</w>
tham</w>
sorcerer</w>
runes</w>
preventing</w>
cages</w>
bandaged</w>
assail
princes</w>
grumpy</w>
arsen
heartedly</w>
countenance</w>
cherished</w>
ambu
flinging</w>
cobble
adan</w>
young
thrashed</w>
nish
hr</w>
public
punk</w>
merchants</w>
hides</w>
hein
greetings</w>
bb</w>
obediently</w>
musty</w>
corrupt</w>
baggy</w>
liver</w>
diminished</w>
defence</w>
blaming</w>
absorbing</w>
writers</w>
monique</w>
holstered</w>
assessing</w>
throttle</w>
djinn</w>
atreus</w>
wickedly</w>
weights</w>
vegetation</w>
savored</w>
navi
galley</w>
fiancee</w>
cary</w>
ritu
fraud</w>
felicia</w>
comprehension</w>
aurora</w>
stripes</w>
makers</w>
concussion</w>
benedict</w>
achi</w>
wordlessly</w>
shaded</w>
projected</w>
mario</w>
laught</w>
ab</w>
proposition</w>
interaction</w>
donned</w>
spirit
marius</w>
justified</w>
awed</w>
reeled</w>
hayes</w>
breast
sluggi
sto</w>
trait</w>
obstacle</w>
inflicted</w>
hiv</w>
xanthus</w>
thong</w>
rodri
mite</w>
ewan</w>
conceived</w>
ninth</w>
fades</w>
flitted</w>
displeasure</w>
crinkled</w>
opposition</w>
functional</w>
inherit
dolph
buffalo</w>
twigs</w>
tilts</w>
pip</w>
darla</w>
perme
discreetly</w>
bewilderment</w>
slain</w>
policemen</w>
loathing</w>
insists</w>
garcia</w>
bodily</w>
girly</w>
babbling</w>
accompanying</w>
thic</w>
o.
neutr
lookout</w>
costumes</w>
comin</w>
hendri
chairman</w>
bray</w>
russ</w>
oy
chimney</w>
barnes</w>
restraining</w>
optimistic</w>
aeron</w>
simpler</w>
poisonous</w>
landlord</w>
laine</w>
bloodshot</w>
bess</w>
welfare</w>
thery</w>
starra</w>
softening</w>
match
humiliating</w>
forge</w>
malice</w>
historic</w>
ft
evens</w>
summoning</w>
embroidered</w>
characteristic</w>
allegi
flags</w>
dedu
dough</w>
coating</w>
barney</w>
adamant</w>
achiev
treasures</w>
passages</w>
hawk
felicity</w>
bristled</w>
grieving</w>
ernity</w>
climbs</w>
viola</w>
decorations</w>
vintage</w>
trains</w>
plagued</w>
pient</w>
odles</w>
swerved</w>
packages</w>
psy</w>
glamour</w>
architecture</w>
slimy</w>
saber</w>
organize</w>
objection</w>
oops</w>
mingling</w>
das
classified</w>
avail</w>
indy</w>
battled</w>
width</w>
tournament</w>
relish</w>
pig
oracle</w>
comm</w>
singu
pover
monty</w>
maple</w>
dryer</w>
dissipated</w>
dat</w>
stainless</w>
loosen
lively</w>
ique</w>
hearty</w>
fruit
exhausting</w>
batch</w>
kali</w>
goats</w>
films</w>
ext</w>
deleg
200</w>
negotiate</w>
hast</w>
har</w>
darmik</w>
climate</w>
ryn</w>
jug</w>
gillian</w>
decay</w>
volcano</w>
treason</w>
sche</w>
phar
markings</w>
kas
hoodie</w>
ev</w>
calmer</w>
ambition</w>
stest</w>
rabid</w>
neighboring</w>
goon</w>
cropped</w>
boldly</w>
tities</w>
representative</w>
thundering</w>
sabot
name
mant</w>
generator</w>
exertion</w>
deacon</w>
rap</w>
losses</w>
frodo</w>
adolin</w>
tux
rehab</w>
ogg</w>
expelled</w>
wist
chided</w>
billions</w>
anasta
dimensions</w>
cyrus</w>
vened</w>
pleasing</w>
freddy</w>
comic</w>
accen
wron
spicy</w>
mckie</w>
havo
yelp</w>
righted</w>
maia</w>
chemicals</w>
transfixed</w>
sephrenia</w>
outsider</w>
dwin</w>
rendezvous</w>
outraged</w>
onslaught</w>
suitcases</w>
:0
tolliver</w>
fruits</w>
acknowledging</w>
bicycle</w>
marlon</w>
franco</w>
biker</w>
squad
poverty</w>
kidnap</w>
jerky</w>
handshake</w>
floorboards</w>
floy
unto</w>
angrier</w>
agh</w>
probe</w>
thad</w>
sagging</w>
regards</w>
portable</w>
newfound</w>
kip</w>
hive</w>
havoc</w>
gees</w>
consol
compon
armp
reinforced</w>
jinny</w>
extracted</w>
elbowed</w>
dak</w>
shakily</w>
recognise</w>
pinching</w>
misunderstanding</w>
limping</w>
gali
clueless</w>
booted</w>
adole
marily</w>
llis</w>
campfire</w>
taway</w>
suburban</w>
lness</w>
impassive</w>
boxing</w>
marilyn</w>
geogra
featured</w>
ek
ddening</w>
cooperation</w>
trepi
lady
sustained</w>
condemned</w>
spotting</w>
erable</w>
crackers</w>
conjured</w>
patricia</w>
leaps</w>
irises</w>
hostility</w>
herr</w>
coloring</w>
abandoning</w>
2012</w>
sterile</w>
obliter
dyed</w>
accurately</w>
passionately</w>
mangled</w>
whim</w>
lemonade</w>
leant</w>
ferocity</w>
distinctive</w>
conventional</w>
writes</w>
tranqu
gisbo</w>
demonstration</w>
betro
amira</w>
nous</w>
entwined</w>
wrestled</w>
snatching</w>
marred</w>
fringe</w>
coaster</w>
timer</w>
franz</w>
dixon</w>
itation</w>
haircut</w>
drones</w>
doorframe</w>
cutter</w>
mistaking</w>
merrill</w>
lunchtime</w>
hungrily</w>
hangover</w>
bleachers</w>
swoo
ryker</w>
vans</w>
scrubbing</w>
queri
kah
guns
epilogue</w>
noncha
mets</w>
braided</w>
bathtub</w>
tiniest</w>
ssible</w>
noble
messi
foods</w>
art
zied</w>
secretive</w>
orphanage</w>
sweats</w>
straight
rambling</w>
nonchalantly</w>
imo
ecstatic</w>
contag
encing</w>
bonfire</w>
lent</w>
gasoline</w>
discern</w>
camouflage</w>
caitlin</w>
agan</w>
kenzie</w>
contains</w>
overpowering</w>
inheritance</w>
doroth
tiptoes</w>
tility</w>
janson</w>
illumination</w>
drags</w>
conquer</w>
ati</w>
abbot</w>
smic</w>
rabbits</w>
puckered</w>
compromised</w>
alya</w>
unwelcome</w>
stinking</w>
smashword
resolution</w>
grumbling</w>
wage</w>
vanishing</w>
swan</w>
sultry</w>
rosemary</w>
medallion</w>
gel
fellow
feed
smothered</w>
matri
ghou
filth</w>
egyptian</w>
awaken</w>
tightens</w>
mart</w>
clustered</w>
boyish</w>
ankh</w>
volumes</w>
smashwords.com</w>
sach
mummy</w>
inferno</w>
chicks</w>
wiggle</w>
warran
seatbelt</w>
relation</w>
heeled</w>
assassination</w>
vegetable</w>
vania</w>
story
retort</w>
destructive</w>
covert</w>
clambered</w>
biology</w>
mccar
generals</w>
concei
tangible</w>
syrup</w>
seas
orts</w>
lington</w>
layout</w>
idi</w>
iii</w>
guides</w>
scorching</w>
savings</w>
licensed</w>
invested</w>
cardinal</w>
bmw</w>
pissing</w>
joni</w>
improvement</w>
henri
dorothy</w>
decidedly</w>
crafted</w>
warped</w>
steward</w>
predict</w>
chap</w>
wielding</w>
mam
lanterns</w>
incess
weariness</w>
shoreline</w>
samson</w>
nico</w>
bordered</w>
verb
pentag
flimsy</w>
flour</w>
compact</w>
bemused</w>
mashed</w>
learnt</w>
dusting</w>
bio</w>
alon
atters</w>
stina</w>
seasons</w>
ome
grimacing</w>
toxic</w>
nouri
honda</w>
hr
wove</w>
lop
limp
tentacles</w>
surable</w>
seam</w>
pointy</w>
overflowing</w>
jeanne</w>
crave</w>
outdoors</w>
judic
crackle</w>
publicity</w>
mechanic</w>
lamb
josef</w>
iana</w>
cullen</w>
contracted</w>
oaks</w>
glimpses</w>
customary</w>
bathe</w>
ave</w>
oozing</w>
myron</w>
glee
footh
prophe
miracles</w>
bothers</w>
twig</w>
tris</w>
raf
ollie</w>
nev
hic
hazard</w>
bloomed</w>
vibe</w>
talion</w>
plowed</w>
issance</w>
goi</w>
cynical</w>
almighty</w>
amen</w>
velly</w>
setup</w>
plau
loyed</w>
conducted</w>
angelic</w>
camar
34</w>
withstand</w>
valued</w>
soot</w>
elihood</w>
dime</w>
constance</w>
sakura</w>
smugly</w>
shined</w>
poet</w>
coyote</w>
compose</w>
whips</w>
vingly</w>
immensely</w>
digger</w>
fiber</w>
dozed</w>
acquire</w>
scanner</w>
jin
gaun
euphor
demetri</w>
cubicle</w>
911</w>
raj</w>
37</w>
trit
pledge</w>
roxy</w>
reverberated</w>
meyer</w>
tousled</w>
stalling</w>
gerry</w>
envisioned</w>
bravery</w>
angeline</w>
observ
mobi
fidgeted</w>
vehem
pac
guard
drummed</w>
aloft</w>
trouble
resulting</w>
naissance</w>
marketing</w>
escapes</w>
asing</w>
ambitious</w>
troubling</w>
surmi
summers</w>
cluttered</w>
puffing</w>
exile</w>
winters</w>
unharmed</w>
restor
caged</w>
unnerved</w>
preservation</w>
circul
angered</w>
stants</w>
disliked</w>
sinu
shrew
sid</w>
ruefully</w>
lysander</w>
kah</w>
isaiah</w>
introducing</w>
gamble</w>
billowing</w>
rebu
racked</w>
nd</w>
forsaken</w>
flamed</w>
sculpture</w>
henrik</w>
enthr
efficiency</w>
contented</w>
bundled</w>
une</w>
tackled</w>
sidney</w>
scrolled</w>
predatory</w>
exiting</w>
aud
trepidation</w>
captains</w>
norm</w>
ew</w>
congregation</w>
goblet</w>
santiago</w>
reah</w>
repairs</w>
omer</w>
ernal</w>
testament</w>
stomp</w>
sville</w>
rue</w>
planks</w>
lighthouse</w>
horseback</w>
extern
ajar</w>
stalled</w>
infamous</w>
fus</w>
susie</w>
sues</w>
rosal
reduce</w>
beeped</w>
terri</w>
stoic</w>
moody</w>
caffeine</w>
pluck</w>
nisha</w>
groped</w>
demonstrate</w>
conting
chipped</w>
memorized</w>
fiddled</w>
confirming</w>
altitude</w>
transform</w>
shrieks</w>
reig
rd</w>
heidi</w>
perspiration</w>
notorious</w>
mairi</w>
llic</w>
kis</w>
journalist</w>
beckoning</w>
behaving</w>
sands</w>
lishly</w>
enchanted</w>
dgy</w>
canteen</w>
trade
strigoi</w>
ninja</w>
fences</w>
desmond</w>
cinder</w>
bosom</w>
aine</w>
sleeps</w>
obnoxious</w>
l'
kalten</w>
inadvertently</w>
forebo
damian</w>
submissive</w>
riel</w>
generate</w>
deftly</w>
northwest</w>
gry
authorized</w>
spectators</w>
reflex</w>
mabel</w>
dax</w>
unci
romeo</w>
renzo</w>
itched</w>
duh</w>
jacqueline</w>
hustled</w>
dismissively</w>
baring</w>
affectionate</w>
intrusion</w>
axel</w>
altair</w>
timber</w>
lingerie</w>
dinners</w>
cheery</w>
hapha
bulbs</w>
trystan</w>
punishing</w>
sensi
eafter</w>
avel
neckline</w>
ardo</w>
stilet
diesel</w>
vaulted</w>
robbery</w>
reassuringly</w>
forceful</w>
assor
urban</w>
marvelous</w>
icious</w>
firs
devouring</w>
conno
carl
assess</w>
dences</w>
reinfor
petri
pr</w>
nameless</w>
motiv
bitches</w>
asset</w>
tabby</w>
lenk</w>
kier
sionate</w>
ryland</w>
jael</w>
flourish</w>
danika</w>
atus</w>
accuse</w>
mule</w>
lyle</w>
firsthand</w>
farthest</w>
bead</w>
mira
carnage</w>
alight</w>
alana</w>
selessly</w>
miko</w>
lotta</w>
geez</w>
ginny</w>
awkwardness</w>
randomly</w>
igno
slug</w>
melinda</w>
lurch</w>
lates</w>
celebrated</w>
verdic
spiraling</w>
sadi</w>
manages</w>
titiously</w>
sewing</w>
furn
flint</w>
racket</w>
hypnotic</w>
hate
enticing</w>
1st</w>
twea
shap
flattering</w>
nibbling</w>
lements</w>
invinci
humid</w>
goodbyes</w>
gnawing</w>
glue</w>
evolved</w>
canadian</w>
tissues</w>
similarly</w>
prudence</w>
clementine</w>
pavi
murdering</w>
inching</w>
graphy</w>
myrnin</w>
maisie</w>
fumes</w>
electronics</w>
cadil
zzo</w>
wisps</w>
trespas
circumstance</w>
team
strate</w>
presumed</w>
git</w>
frenzied</w>
bandits</w>
you're</w>
world
safest</w>
kus</w>
inhuman</w>
exhaust</w>
ernest</w>
atingly</w>
terrific</w>
skel
laird</w>
hospitality</w>
dery</w>
deflated</w>
elin
confided</w>
profession
jutted</w>
inquiry</w>
dubious</w>
resear
monaster
khaki</w>
gly
argus</w>
midair</w>
gore</w>
dimensional</w>
coaxed</w>
access
slicked</w>
newborn</w>
elementary</w>
durnik</w>
archers</w>
thinkin</w>
starve</w>
rejo
jenn</w>
ema</w>
recruit</w>
loki</w>
goons</w>
extract</w>
thon</w>
phenomenon</w>
doro
brutally</w>
zan</w>
turquo
tightness</w>
strangle</w>
semblance</w>
plateau</w>
displays</w>
cheese
wastel
elin</w>
edgy</w>
timid</w>
roofs</w>
odrade</w>
burgers</w>
addison</w>
wiggling</w>
truce</w>
multitude</w>
mmmm</w>
empress</w>
disturbance</w>
assortment</w>
trustworthy</w>
pumpkin</w>
precip
heave</w>
gargoyle</w>
fianc
drool</w>
distinguished</w>
chestnut</w>
cae
bounds</w>
anew</w>
visibility</w>
sustain</w>
proceedings</w>
phin</w>
ido
fingernail</w>
encircled</w>
eage</w>
clutches</w>
bonnet</w>
wonderfully</w>
conspicuous</w>
certificate</w>
pasture</w>
summit</w>
speeds</w>
maura</w>
emphatically</w>
blatant</w>
actic</w>
videos</w>
slashing</w>
positioning</w>
oz</w>
confidential</w>
cist</w>
scans</w>
arca
addict</w>
trai
swatted</w>
subsequent</w>
lunge</w>
villain</w>
tai
lapped</w>
hysterically</w>
await</w>
throaty</w>
proves</w>
lashing</w>
decorating</w>
context</w>
bruno</w>
yuri</w>
virtual</w>
turquoise</w>
measuring</w>
impec
hairline</w>
whale</w>
vibrations</w>
panicking</w>
grudgingly</w>
grotesque</w>
enetra
cuddled</w>
buckets</w>
turer</w>
sprinting</w>
numbness</w>
laby
foreig
astonishing</w>
squealing</w>
sips</w>
reverie</w>
infinitely</w>
impenetra
edu
sate</w>
rural</w>
fanny</w>
clammy</w>
cey</w>
36</w>
sylvania</w>
oids</w>
knesses</w>
disagreed</w>
chubby</w>
turf</w>
populated</w>
obtained</w>
fend</w>
diversion</w>
thron
tho</w>
spends</w>
roles</w>
layton</w>
henrietta</w>
esther</w>
zzard</w>
store
scurrying</w>
rotated</w>
rails</w>
rounding</w>
prologue</w>
queu
mness</w>
kilometers</w>
gunslinger</w>
adjoining</w>
weres</w>
token</w>
stead
shabby</w>
fran</w>
napoleon</w>
julio</w>
carelessly</w>
artifact</w>
urges</w>
t'
significantly</w>
recollection</w>
peg</w>
immigr
hyst
chopping</w>
centric</w>
uu
raw
pagan</w>
intel</w>
hadley</w>
empt</w>
convention</w>
beginnings</w>
v.</w>
ranc
paranormal</w>
ov
isman</w>
hottest</w>
embracing</w>
cox</w>
capturing</w>
arc
apprehensive</w>
jecting</w>
involuntary</w>
cheekbone</w>
hemi
hah</w>
chanted</w>
judges</w>
engaging</w>
encompas
trapping</w>
thar
shin
forthcoming</w>
forlor
cco</w>
bottled</w>
thayer</w>
sanchez</w>
inform
anastasia</w>
lorie</w>
intercep
throp</w>
seamus</w>
ppin</w>
lordship</w>
intervals</w>
hantly</w>
gender</w>
versus</w>
triumphantly</w>
processed</w>
logists</w>
stretcher</w>
rok</w>
hamish</w>
dough
navigate</w>
gerard</w>
paddy</w>
expects</w>
caesar</w>
board
eland</w>
ea</w>
decks</w>
crew
carnal</w>
weaknesses</w>
thudded</w>
stiffen</w>
errands</w>
theore
myriad</w>
drau
solace</w>
ped
levit
labyrin
glock</w>
carcass</w>
stus</w>
ska</w>
mentary</w>
dedication</w>
dill</w>
airborne</w>
aina</w>
athena</w>
tingles</w>
planner</w>
oozed</w>
gritting</w>
drifts</w>
unfold</w>
loops</w>
lie
intelli
deepening</w>
continuous</w>
vortex</w>
dismissing</w>
christy</w>
allegiance</w>
sterous</w>
eugen
astri
tenants</w>
sopho
rico
reconci
mailed</w>
ether
drumming</w>
craz
ceilings</w>
voicemail</w>
toff</w>
minum</w>
jaw
ipod</w>
enab
cryptic</w>
clamation</w>
carton</w>
carpen
aimlessly</w>
wistful</w>
translate</w>
stud</w>
eliminated</w>
coupled</w>
colonies</w>
coals</w>
bouncer</w>
actively</w>
yield</w>
winnie</w>
undress</w>
tickle</w>
receded</w>
plic
hoe</w>
slopes</w>
sizzling</w>
resented</w>
lyght</w>
asa</w>
upsetting</w>
reka</w>
morg
ingen
hospitals</w>
brendan</w>
abducted</w>
unfolding</w>
thunderous</w>
technician</w>
oaka</w>
mantle</w>
louisi
lawson</w>
lam</w>
jama
ists</w>
equation</w>
tax
stools</w>
longbow</w>
horrifying</w>
harden</w>
foreboding</w>
downs</w>
willing
tiveness</w>
krista</w>
irritably</w>
impenetrable</w>
aris</w>
30
sari</w>
midity</w>
elsie</w>
crater</w>
squint</w>
shirtless</w>
quen
egory</w>
category</w>
tactical</w>
staining</w>
scenarios</w>
saucer</w>
listing</w>
further
prisc
ggly</w>
easiness</w>
buttocks</w>
bureau
analyze</w>
aluminum</w>
90</w>
values</w>
thood</w>
shrun
relin
colette</w>
chlor
shipped</w>
intervention</w>
enjoyable</w>
seous</w>
hobby</w>
gravit
earnestly</w>
dimple</w>
dabbed</w>
blasts</w>
um
scribe</w>
navel</w>
ironically</w>
capitol</w>
trophy</w>
jeb</w>
vicki</w>
quaint</w>
natalya</w>
nowa
inty</w>
hydro
edging</w>
dominance</w>
communicating</w>
yk</w>
vil</w>
itudes</w>
headphones</w>
eureka</w>
entials</w>
corbin</w>
clarice</w>
booth
teri</w>
mess
jean
treaty</w>
sergei</w>
piling</w>
myrtle</w>
discussions</w>
appointments</w>
vietnam</w>
t.
sidewalks</w>
goo</w>
flow
acknowledgment</w>
sitter</w>
psychotic</w>
nessee</w>
lindy</w>
hysteria</w>
doe</w>
backstage</w>
luscious</w>
demonstrated</w>
crumble</w>
theon</w>
persephone</w>
gnarled</w>
cully</w>
chrome</w>
banquet</w>
tennessee</w>
humor
attentive</w>
ashore</w>
advances</w>
kimb
cautioned</w>
warlock</w>
relentlessly</w>
majestic</w>
hobbled</w>
formula</w>
dispatched</w>
desolate</w>
alexei</w>
laken</w>
too
soles</w>
rots</w>
miraculously</w>
entran
bushy</w>
banker</w>
akin</w>
repaired</w>
credits</w>
slime</w>
refugees</w>
ramirez</w>
gically</w>
concep
charts</w>
pours</w>
ological</w>
morgue</w>
lowe</w>
tamed</w>
execute</w>
verdict</w>
unreal</w>
station
needless</w>
listens</w>
davey</w>
undoing</w>
engrossed</w>
divide</w>
deliver
roberta</w>
naw</w>
jolly</w>
hopelessly</w>
doorman</w>
44</w>
wayward</w>
simi</w>
switches</w>
rapped</w>
jackass</w>
chandelier</w>
shred</w>
pans</w>
oily</w>
giles</w>
dara</w>
whoosh</w>
trinity</w>
panther</w>
opponents</w>
fearless</w>
downhill</w>
crippled</w>
cables</w>
bowels</w>
verify</w>
unfur
stone
stal</w>
recy
fastest</w>
aaaa
zipping</w>
wander
logged</w>
kro
iz</w>
ssey</w>
patt
gorge</w>
ghastly</w>
dependent</w>
sharks</w>
prop</w>
admittedly</w>
stabili
sobered</w>
shawl</w>
rummaging</w>
ishly</w>
fates</w>
assisted</w>
renna</w>
lop</w>
intellectual</w>
disorder</w>
coil</w>
regal</w>
patsy</w>
hart
exchanging</w>
employ</w>
dang</w>
crab</w>
willingness</w>
vand
shady</w>
mourn
mew</w>
louisiana</w>
invade</w>
integrity</w>
42</w>
rains</w>
loch</w>
frayed</w>
barrage</w>
withered</w>
sixties</w>
privy</w>
appreciative</w>
accuracy</w>
occurs</w>
improvi
buses</w>
boost</w>
assistants</w>
arma
vage</w>
unarmed</w>
raking</w>
questioningly</w>
obsi
retribu
kr
insistence</w>
icing</w>
accented</w>
sneaked</w>
shai</w>
horizontal</w>
flats</w>
saxon</w>
lize</w>
kari</w>
agatha</w>
which
turbul
spaced</w>
restricted</w>
obstacles</w>
gurney</w>
greaves</w>
elessness</w>
elvi</w>
afgh
orous</w>
maximi
labs</w>
kenly</w>
grudge</w>
gauze</w>
withdra
relinqui
ener</w>
topics</w>
snacks</w>
shocks</w>
recipient</w>
je</w>
ero</w>
bicep</w>
sos</w>
sabelle</w>
nun</w>
mystical</w>
dea</w>
criti
tempest</w>
sparse</w>
rally</w>
gilbert</w>
dures</w>
distributed</w>
confuse</w>
worri
ply</w>
ono</w>
freaky</w>
blaire</w>
runners</w>
palmer</w>
noose</w>
knuckle</w>
hacking</w>
emble
burgun
quic
peripheral</w>
onyx</w>
involves</w>
flushing</w>
scrawny</w>
overlook</w>
insinu
grilled</w>
favorites</w>
uneven
troo
prior
juliette</w>
groggy</w>
funding</w>
choir</w>
bake</w>
reper
news
lurked</w>
huinn</w>
frat
toyed</w>
soundly</w>
readied</w>
prank</w>
politician</w>
drooling</w>
dige
affli
whiskers</w>
sacrifices</w>
breathy</w>
bots</w>
trish</w>
prelimin
neuro
fabri
diplomatic</w>
blow
unaffected</w>
thudding</w>
telepathy</w>
tasty</w>
psychiatrist</w>
kia</w>
infir
ander
wardens</w>
wiry</w>
scrawled</w>
puffs</w>
oners</w>
mills</w>
manila</w>
incu
irene</w>
coordinates</w>
predators</w>
mmons</w>
lois</w>
gist</w>
ensuring</w>
eddy</w>
pawn</w>
murray</w>
hick
hans</w>
bugger</w>
swarming</w>
protesting</w>
meds</w>
mann
capped</w>
tcha</w>
prep</w>
observer</w>
dervish</w>
anom
wish
sweeps</w>
scoot</w>
invo
gutter</w>
bloke</w>
tutor</w>
elusive</w>
chases</w>
blindfold</w>
basics</w>
vibrate</w>
specialist</w>
michaels</w>
kick
roun
pajama</w>
lopsided</w>
archang
valkyrie</w>
tell
lesley</w>
buttoning</w>
crust</w>
bruising</w>
arya</w>
unru
rebuild</w>
qhuinn</w>
pd</w>
kisten</w>
batted</w>
accountant</w>
tangling</w>
mushrooms</w>
fragrant</w>
woo</w>
rosewood</w>
opposing</w>
lanky</w>
brilliance</w>
stunt</w>
sacks</w>
nicola</w>
happiest</w>
cranked</w>
congress</w>
starbucks</w>
squares</w>
michi
trivial</w>
ssc
janelle</w>
jayne</w>
devious</w>
bedtime</w>
tomat
mela</w>
deathly</w>
crowding</w>
boasted</w>
blissful</w>
seam
retribution</w>
rington</w>
kata</w>
fug
recliner</w>
perpetual</w>
illion</w>
feverish</w>
camel
uncontrollable</w>
itated</w>
bott</w>
baskets</w>
supportive</w>
suffice</w>
poisoning</w>
orchard</w>
meditation</w>
johan
engraved</w>
d'artag
consistent</w>
primarily</w>
lizzy</w>
interviewed</w>
deck
tree
trainer</w>
sparky</w>
raoul</w>
quill</w>
nn</w>
mam</w>
katelyn</w>
clump</w>
pinpoint</w>
outnumbered</w>
industries</w>
amazon</w>
targeted</w>
respects</w>
plausible</w>
peoples</w>
obsidian</w>
corruption</w>
brain
boundary</w>
puppies</w>
pleasures</w>
nyn</w>
holland</w>
crypt</w>
burgundy</w>
belli
tags</w>
senate</w>
sardon
ranged</w>
ish
hag</w>
britain</w>
vents</w>
laurent</w>
consolation</w>
claustro
bur</w>
scence</w>
dismissive</w>
colo</w>
bombar
antonia</w>
varying</w>
thology</w>
rinsed</w>
phrases</w>
tempt</w>
mateo</w>
heroic</w>
respectfully</w>
pretense</w>
presti
locket</w>
gaunt
fern</w>
charmed</w>
walled</w>
appli
furnish
dialo
claustropho
oden</w>
nonchalant</w>
exceptional</w>
twe
marley</w>
mailbox</w>
lease</w>
furthermore</w>
descrip
consen
carpeted</w>
utmost</w>
trun
torrent</w>
ringer</w>
greta</w>
stupor</w>
stalks</w>
cater
70</w>
3.
stopp
prover
ports</w>
peasant</w>
talisman</w>
say
psychology</w>
porsche</w>
daytime</w>
ant
pounce</w>
external</w>
difficulties</w>
crib</w>
addie</w>
unruly</w>
steful</w>
rhetor
profits</w>
premises</w>
maniac</w>
encounters</w>
comply</w>
alian</w>
withdrawn</w>
ruse</w>
marathon</w>
infuriated</w>
hoo</w>
google</w>
furnishings</w>
damen</w>
barbecue</w>
uncanny</w>
rogate</w>
pless</w>
d'artagnyn</w>
brandi
aka</w>
smelly</w>
headline</w>
gilla</w>
sonya</w>
purr</w>
narrowly</w>
illusions</w>
hier
easter</w>
dutifully</w>
visor</w>
toothbrush</w>
submerged</w>
rati
moods</w>
graced</w>
exceptionally</w>
precau
magen</w>
flaw</w>
comrade</w>
rickety</w>
randolph</w>
bets</w>
whirl</w>
spiritwind</w>
sofie</w>
sch</w>
rhun</w>
disapproving</w>
dda</w>
bobbie</w>
unheard</w>
rels</w>
ownership</w>
mey</w>
gol</w>
eigh</w>
considerate</w>
bbean</w>
telepathic</w>
relented</w>
morrow</w>
hefted</w>
clive</w>
caribbean</w>
suella</w>
smear</w>
ongoing</w>
mysteri
mercenary</w>
mcdonald</w>
jorge</w>
coffee
ceri</w>
monastery</w>
mika
inum</w>
elayne</w>
whisked</w>
stranded</w>
severance</w>
refined</w>
rein</w>
membr
injected</w>
hybrid</w>
frosty</w>
dutch</w>
conveniently</w>
cency</w>
auron</w>
voss</w>
stitch</w>
dreading</w>
dote</w>
interpret</w>
grams</w>
clang</w>
unprepared</w>
spooked</w>
romulus</w>
immobile</w>
bossy</w>
banshe
ashen</w>
toad</w>
seiz
recruits</w>
nykyrian</w>
glad
shier</w>
semin
novel
mercenaries</w>
martini</w>
gallop</w>
yearned</w>
spectacles</w>
grating</w>
apocalypse</w>
afar</w>
queried</w>
pixie</w>
launching</w>
flows</w>
cloaks</w>
vado</w>
tank
storming</w>
rowdy</w>
ori</w>
divul
xen
relied</w>
invincible</w>
bathrooms</w>
unloaded</w>
markets</w>
balloons</w>
impercepti
database</w>
whar
michigan</w>
lazar
institution</w>
gilded</w>
donny</w>
caramel</w>
barak</w>
quinlan</w>
onions</w>
moroi</w>
kowal
ig</w>
giselle</w>
eem</w>
bash</w>
stature</w>
seg
english
ende
devilish</w>
aphro
alanna</w>
yas
sponge</w>
punctuated</w>
oxford</w>
mysti
dece
unconcerned</w>
rehearsal</w>
kaylee</w>
butts</w>
wooded</w>
surgical</w>
sentinels</w>
flicks</w>
exploration</w>
occurrence</w>
jupit
imposed</w>
dable</w>
booths</w>
vy
input</w>
crawford</w>
cocon
brant</w>
sneaky</w>
psychologist</w>
millenni
heartless</w>
gentleness</w>
dignified</w>
correspon
unthin
realms</w>
ravaged</w>
hiked</w>
dvd</w>
despise</w>
bson</w>
amateur</w>
weaver</w>
tiptoed</w>
cheres</w>
ceramic</w>
whichever</w>
ridges</w>
noticeably</w>
heartbeats</w>
thug</w>
stitched</w>
sleepily</w>
seals</w>
mencheres</w>
indoors</w>
imitation</w>
greece</w>
disappointing</w>
clumsily</w>
kresh</w>
jupiter</w>
infe
ior
tracker</w>
theatri
ssman</w>
specimen</w>
references</w>
olaf</w>
inez</w>
scarce</w>
luminous</w>
asy
shaving</w>
principles</w>
institu
gym
confeder
abundance</w>
traits</w>
thinning</w>
shaw
preter
pil</w>
mbing</w>
acquaintances</w>
surfing</w>
reckoned</w>
raz</w>
jerome</w>
dominique</w>
urine</w>
unob
tablo
reagan</w>
exhaling</w>
emphasized</w>
user</w>
routes</w>
ministry</w>
frying</w>
collision</w>
bonding</w>
wu
overseas</w>
meager</w>
lockers</w>
klin</w>
hog</w>
gunshots</w>
everett</w>
blazer</w>
abra</w>
swirls</w>
preserved</w>
nation
mounds</w>
disinter
caked</w>
c.
joins</w>
hari</w>
classical</w>
accentu
ahh</w>
publicly</w>
dispatch</w>
crissc
bases</w>
wondr
unreasonable</w>
somer
platinum</w>
jarring</w>
deliciously</w>
undeniable</w>
unmarked</w>
tarp</w>
salesman</w>
marcie</w>
imogen</w>
honed</w>
elegantly</w>
still
complications</w>
committing</w>
monkeys</w>
hassan</w>
airlock</w>
tat</w>
splinters</w>
sayin</w>
regretting</w>
ckly</w>
cammie</w>
glac
dur</w>
coincidental</w>
bravado</w>
slavery</w>
nazi</w>
harvard</w>
flex</w>
redly</w>
pebbles</w>
inations</w>
harbour</w>
straightforward</w>
skep
parac
nowadays</w>
witnessing</w>
probed</w>
myth
mei</w>
clans</w>
unused</w>
socket</w>
omic</w>
mentation</w>
mafia</w>
mons</w>
linc</w>
limply</w>
extinguished</w>
appealed</w>
orns</w>
nighting
manning</w>
leum</w>
envied</w>
ein
comet</w>
sentry</w>
reilly</w>
mbia</w>
lured</w>
immaculate</w>
fails</w>
ador</w>
willpower</w>
violated</w>
spaceship</w>
seduced</w>
portu
nak
muffin</w>
heater</w>
grime</w>
casualties</w>
adel
timb
tention</w>
reverence</w>
patroni
roasted</w>
rescuing</w>
prosecutor</w>
mumbles</w>
taur</w>
saloon</w>
objections</w>
motivated</w>
misp
graze</w>
channie</w>
sating</w>
paragra
obedience</w>
leftover</w>
finely</w>
feathered</w>
endings</w>
emitted</w>
dolphin</w>
barge</w>
dingy</w>
contagious</w>
captors</w>
tummy</w>
troop</w>
salvage</w>
postp
loran</w>
jackal</w>
flinching</w>
cartoon</w>
faucet</w>
orchestra</w>
incan
fray</w>
transpir
squire</w>
railroad</w>
paramedics</w>
klein</w>
fal</w>
barbed</w>
atlantis</w>
livid</w>
eighteenth</w>
astrid</w>
anticipate</w>
waded</w>
scooping</w>
ridcully</w>
numbing</w>
northeast</w>
chee</w>
acutely</w>
ée</w>
specialty</w>
ranking</w>
quantum</w>
humidity</w>
asteroid</w>
advo
zoned</w>
gymna
cadillac</w>
antics</w>
vak</w>
sparrow</w>
saffi</w>
passive</w>
deir
teleport</w>
persona</w>
candidates</w>
accidental</w>
spooky</w>
roars</w>
prickled</w>
mats</w>
kramer</w>
humour</w>
disastrous</w>
deuce</w>
dened</w>
tira
subter
marsh
cor</w>
tigers</w>
surfaces</w>
rustled</w>
orary</w>
ghton</w>
furnace</w>
fiddling</w>
succumbed</w>
strider</w>
hateful</w>
gour
catac
whirlwind</w>
spheres</w>
shelly</w>
psyche</w>
malicious</w>
josephe</w>
overturned</w>
magr
hauk</w>
flexible</w>
ied</w>
dila
adopt</w>
39</w>
wallpaper</w>
pivo
mindedly</w>
affecting</w>
showering</w>
propping</w>
negotiations</w>
jami
cupboards</w>
announces</w>
ssings</w>
nightly</w>
lab
helmets</w>
dummy</w>
campsite</w>
traveler</w>
pavilion</w>
lavish</w>
georg
faked</w>
trampled</w>
trak</w>
pennsylvania</w>
cork</w>
canned</w>
bulary</w>
wills</w>
tome</w>
tink</w>
vian</w>
subor
sarene</w>
meat
hanger</w>
forge
soren</w>
phole</w>
groping</w>
coron
utility</w>
underlying</w>
shable</w>
ryke</w>
hunk</w>
bret</w>
von
thorns</w>
sung</w>
sphin
smal</w>
newer</w>
meow</w>
ghtfully</w>
fidgeting</w>
tomatoes</w>
skeletal</w>
pi</w>
monthly</w>
investigations</w>
vertible</w>
ul</w>
shame
relayed</w>
mpe
accelerator</w>
wistfully</w>
squadron</w>
profu
incense</w>
bleached</w>
snorts</w>
roach</w>
retain</w>
mystic</w>
mously</w>
incline</w>
chup</w>
brey</w>
stability</w>
icism</w>
winded</w>
scrubs</w>
ople</w>
midway</w>
laps</w>
blurt</w>
quarrel</w>
paler</w>
onloo
isance</w>
erected</w>
canni
clips</w>
spasm</w>
patrols</w>
lishments</w>
hulking</w>
disabled</w>
tedious</w>
rituals</w>
riddle</w>
plasma</w>
factor
chooses</w>
wrung</w>
quette</w>
distinguish</w>
blooming</w>
profusely</w>
papara
monika</w>
midate</w>
fella</w>
dio</w>
unblinking</w>
spirited</w>
retro
rainy</w>
instan
inden
devyn</w>
chauffe
cabins</w>
bearer</w>
attachment</w>
exhibit</w>
exercises</w>
engineers</w>
carbon</w>
yellen</w>
styled</w>
shrimp</w>
interfering</w>
gated</w>
credi
accessible</w>
intimidate</w>
bowen</w>
unwrapped</w>
taunt</w>
spits</w>
shrinking</w>
sden</w>
rasp</w>
rour
maryellen</w>
impri
debts</w>
callahan</w>
thereafter</w>
sprinkled</w>
pix
partnership</w>
lash
grapes</w>
blared</w>
uncommon</w>
retained</w>
overboard</w>
neville</w>
morbid</w>
marta</w>
fashionable</w>
entou
diseases</w>
dif
dealings</w>
coven
alvin</w>
apt</w>
skittered</w>
rourke</w>
programming</w>
pact</w>
accounting</w>
wayden</w>
wagging</w>
greedily</w>
anten
aghast</w>
aders</w>
manhood</w>
guhl</w>
grimy</w>
dishwasher</w>
deprived</w>
appeti
ña</w>
turt
tougher</w>
reinforcements</w>
nostal
abroad</w>
nightingale</w>
nauseous</w>
lunk</w>
kelp</w>
howls</w>
helicopters</w>
olds</w>
jeru
impulsive</w>
bition</w>
zor
puddles</w>
lishing</w>
instinctive</w>
halting</w>
hai</w>
giguhl</w>
stral</w>
ryl</w>
riveted</w>
origins</w>
intruders</w>
iner
ilia</w>
faraway</w>
authorit
reflexes</w>
questionable</w>
mpa</w>
fritz</w>
bride
tilly</w>
splu
matur
jacked</w>
hep
fixated</w>
expectant</w>
eib
calculations</w>
artistic</w>
zal
weapon
twitter</w>
sidled</w>
shores</w>
kittens</w>
infatu
hu</w>
authentic</w>
xus</w>
rotted</w>
round
ketchup</w>
feeds</w>
champi
aquar
tarmac</w>
sealing</w>
redemption</w>
professors</w>
procedures</w>
molded</w>
kitchens</w>
ghouls</w>
vord</w>
ston
sported</w>
interrupts</w>
energies</w>
eibhear</w>
adore</w>
unsteadily</w>
monitored</w>
consult</w>
artwork</w>
wine
stow</w>
rips</w>
completion</w>
tuxedo</w>
teness</w>
tantali
substitute</w>
legg
erty</w>
bugged</w>
alabama</w>
ablo</w>
toying</w>
nier</w>
inferi
cavernous</w>
sag
recruited</w>
mesis</w>
haunches</w>
tribal</w>
tinge</w>
pedest
lage</w>
kowalski</w>
k'
earliest</w>
stoned</w>
mica</w>
ebony</w>
coverage</w>
tensing</w>
reviewed</w>
lansing</w>
georgina</w>
disclo
chirped</w>
amery</w>
vities</w>
speck</w>
payback</w>
deterior
cranky</w>
whores</w>
priscilla</w>
mourn</w>
moira</w>
tremors</w>
stration</w>
slump</w>
serum</w>
jerusalem</w>
itter</w>
conquered</w>
barb</w>
yah</w>
securities</w>
refrain</w>
bloodline</w>
barreled</w>
testify</w>
sare
overtook</w>
mainland</w>
ll
ethereal</w>
ellison</w>
malachi</w>
griev
gait</w>
dagmar</w>
camped</w>
bracelets</w>
annoy</w>
tean</w>
slouched</w>
sighted</w>
misunderstood</w>
prescription</w>
journals</w>
enterprises</w>
suburbs</w>
shari</w>
nook</w>
narci
caliber</w>
annette</w>
torate</w>
sympathi
superiors</w>
sensor</w>
deus</w>
becker</w>
tallest</w>
modified</w>
mish
lyon</w>
gian</w>
framing</w>
duplic
snoo
slay</w>
saints</w>
remington</w>
outru
frogs</w>
construct</w>
blossoms</w>
alpha
timed</w>
rotating</w>
knee
continuously</w>
subordin
robb
moust
inky</w>
goose
devastation</w>
catalina</w>
calder</w>
ambled</w>
unnaturally</w>
surrep
manuscript</w>
crystal
before
backdrop</w>
stocky</w>
sonny</w>
skelet
misc
highlighted</w>
zep
lakes</w>
generosity</w>
boar</w>
queasy</w>
donkey</w>
audio</w>
torak</w>
quipped</w>
partying</w>
parachu
magnet</w>
eren</w>
completing</w>
cheted</w>
bung
brielle</w>
vu</w>
prissi</w>
pelvis</w>
noisily</w>
ley
whack</w>
kled</w>
chry
appropriately</w>
tolerance</w>
sentimental</w>
reds</w>
orgasms</w>
murderers</w>
keir
gems</w>
deirdre</w>
wing
lious</w>
kenneth</w>
headset</w>
decor</w>
afforded</w>
saur</w>
naz
lorelei</w>
fondly</w>
filming</w>
dunes</w>
drawl</w>
discretion</w>
aislin</w>
wolf
precaution</w>
overwhelm</w>
natives</w>
temperatures</w>
ravenous</w>
penalty</w>
outrun</w>
hinged</w>
55</w>
vos</w>
spontaneous</w>
polar</w>
entourage</w>
solidi
quen</w>
nas</w>
mysteriously</w>
frosted</w>
edwards</w>
nery</w>
fractured</w>
dismissal</w>
cooed</w>
accordingly</w>
nika</w>
manned</w>
jez</w>
holmes</w>
galla
debor
concealing</w>
companionship</w>
ativity</w>
advantages</w>
addresses</w>
vette</w>
vating</w>
protruded</w>
plummeted</w>
mpers</w>
lud
imprison
huddle</w>
graciously</w>
governments</w>
colossal</w>
worthwhile</w>
trina</w>
syllable</w>
hisses</w>
fro</w>
critici
cents</w>
stun</w>
seelie</w>
energe
dora</w>
comedy</w>
cocoon</w>
warding</w>
thaire</w>
sibling</w>
reprieve</w>
peeta</w>
manifest</w>
icon</w>
forks</w>
brilliantly</w>
adept</w>
waii</w>
thad
macon</w>
lothaire</w>
initiated</w>
flop</w>
erals</w>
dé
bade</w>
oph</w>
napkins</w>
millennia</w>
anistan</w>
sparring</w>
pungent</w>
infirmary</w>
impressions</w>
emanated</w>
bad
attendants</w>
kob</w>
flaws</w>
crep
coon</w>
cami</w>
starboard</w>
southwest</w>
phin
olo</w>
fiend</w>
edan</w>
capac
blurring</w>
lester</w>
shrubs</w>
sassen
pooling</w>
oral</w>
willa</w>
whistles</w>
voo
unfocused</w>
lla
enjoys</w>
basil</w>
pairing</w>
medy</w>
fisherman</w>
bravely</w>
blaster</w>
peters</w>
merciless</w>
finality</w>
disgrun
boris</w>
afterlife</w>
sprouted</w>
imb
cobwebs</w>
wicker</w>
undu
ultra
thole</w>
aber
1.
transmitted</w>
summer
skeletons</w>
cherd</w>
afghanistan</w>
snout</w>
shroud</w>
gn</w>
flailed</w>
doubtfully</w>
branded</w>
archives</w>
astu
valeria</w>
ritcherd</w>
receipt</w>
psi</w>
erius</w>
dune</w>
council
cep
tolerable</w>
skyline</w>
scruffy</w>
rachael</w>
holders</w>
eroom</w>
clearance</w>
bush
whacked</w>
weaken</w>
titan</w>
petu
manic</w>
gav
exuber
emotionless</w>
cowering</w>
alds</w>
unconsciousness</w>
refill</w>
promoted</w>
teau</w>
rudely</w>
pumm
husk
frat</w>
father
elastic</w>
dinna</w>
cashier</w>
practices</w>
opa
les
icle</w>
elong
drilled</w>
domen
curvy</w>
coolness</w>
batting</w>
sympathetically</w>
rocker</w>
resembling</w>
proportions</w>
lorenzo</w>
labyrinth</w>
inconvenience</w>
seep</w>
province</w>
freakin</w>
elation</w>
efficiently</w>
communicated</w>
refreshed</w>
relay</w>
pocketed</w>
pertur
kong</w>
intervene</w>
hawaii</w>
breakup</w>
immersed</w>
excessive</w>
enie</w>
empathy</w>
dowed</w>
burner</w>
bian</w>
atile</w>
warfare</w>
repet
ludic
gurgling</w>
weasel</w>
swat</w>
spring
naval</w>
dips</w>
decency</w>
compassionate</w>
cloths</w>
barks</w>
bounding</w>
agri
renov
keen
faux</w>
fuming</w>
churches</w>
bookcase</w>
tyr</w>
truthful</w>
mptions</w>
manfred</w>
kac
flecks</w>
watson</w>
stuffy</w>
sassenach</w>
provoked</w>
precautions</w>
inev</w>
camb
ags</w>
zarah</w>
sassy</w>
marvel</w>
hinev</w>
eloqu
dolo
conjure</w>
caved</w>
booker</w>
veteran</w>
seethed</w>
pods</w>
nian</w>
karma</w>
juices</w>
avon</w>
watchers</w>
sadistic</w>
rica</w>
mano
mastered</w>
lise</w>
layered</w>
floun
dispersed</w>
uncles</w>
paparazzi</w>
implying</w>
iphone</w>
disconcerting</w>
comfy</w>
captor</w>
tholo
summons</w>
salmon</w>
lineage</w>
indignant</w>
idiotic</w>
chandler</w>
pinky</w>
kentu
jakob</w>
defy</w>
casper</w>
wield</w>
tapestry</w>
mistre
magrat</w>
lons</w>
homa</w>
viking</w>
replayed</w>
privileged</w>
marla</w>
fil</w>
consulted</w>
arise</w>
tir</w>
thane</w>
scratchy</w>
preferably</w>
padding</w>
irregular</w>
gior
footman</w>
explicable</w>
drooped</w>
gious</w>
countertop</w>
atics</w>
activate</w>
rightful</w>
lev</w>
crepsley</w>
antonietta</w>
withdrawal</w>
voodoo</w>
pew</w>
m.
cold
berth</w>
annalise</w>
trooper</w>
shard</w>
roberto</w>
pharmac
massacre</w>
marvin</w>
dah</w>
41</w>
thickened</w>
suns</w>
petrified</w>
joyous</w>
fa</w>
dowager</w>
[...]
